<unk>	0
<s>	0
</s>	0
▁t	-0
he	-1
▁a	-2
▁स	-3
र्	-4
in	-5
▁the	-6
▁o	-7
▁प	-8
को	-9
्र	-10
on	-11
re	-12
मा	-13
er	-14
▁ग	-15
▁s	-16
का	-17
्य	-18
ti	-19
▁of	-20
en	-21
ने	-22
▁p	-23
▁त	-24
nd	-25
न्	-26
▁व	-27
▁b	-28
▁c	-29
or	-30
al	-31
ed	-32
▁f	-33
is	-34
ले	-35
▁w	-36
▁अ	-37
▁to	-38
ला	-39
es	-40
नि	-41
हर	-42
▁र	-43
▁क	-44
it	-45
▁in	-46
स्	-47
▁ब	-48
tion	-49
▁m	-50
ing	-51
▁गर्	-52
an	-53
▁and	-54
ou	-55
नु	-56
at	-57
..	-58
▁प्र	-59
▁(	-60
▁d	-61
▁भ	-62
▁ह	-63
ar	-64
▁द	-65
हरू	-66
क्	-67
ति	-68
ic	-69
le	-70
ार	-71
ro	-72
▁म	-73
ent	-74
▁य	-75
ना	-76
▁h	-77
▁be	-78
▁ज	-79
▁आ	-80
il	-81
▁उ	-82
▁गर	-83
ित	-84
लाई	-85
as	-86
▁।	-87
ec	-88
म्	-89
▁re	-90
▁T	-91
ाल	-92
▁n	-93
ation	-94
▁नि	-95
ve	-96
▁th	-97
▁का	-98
था	-99
▁छ	-100
▁वि	-101
om	-102
▁S	-103
▁e	-104
यो	-105
▁l	-106
ता	-107
▁मा	-108
ment	-109
नेछ	-110
▁or	-111
एको	-112
all	-113
▁for	-114
नी	-115
िम	-116
▁A	-117
▁C	-118
▁हु	-119
त्र	-120
....	-121
▁sh	-122
▁न	-123
st	-124
se	-125
▁वा	-126
ur	-127
▁I	-128
▁y	-129
ce	-130
ot	-131
im	-132
id	-133
▁पर	-134
दा	-135
▁g	-136
नुह	-137
्व	-138
्या	-139
िक	-140
▁pro	-141
ेश	-142
ay	-143
ut	-144
ct	-145
ol	-146
ra	-147
et	-148
▁The	-149
▁an	-150
▁shall	-151
ोज	-152
▁u	-153
▁गर्न	-154
क्ष	-155
ers	-156
▁con	-157
र्य	-158
▁ख	-159
ाँ	-160
ाउ	-161
▁is	-162
▁सम्	-163
ri	-164
ow	-165
▁ला	-166
कार	-167
▁you	-168
▁च	-169
स्त	-170
ोस्	-171
▁ल	-172
her	-173
▁कु	-174
▁on	-175
रा	-176
वा	-177
▁श	-178
ith	-179
ch	-180
ill	-181
नुहोस्	-182
▁त्य	-183
▁su	-184
्ट	-185
▁as	-186
▁P	-187
बा	-188
पा	-189
▁दि	-190
▁फ	-191
▁ए	-192
▁सं	-193
▁सम	-194
▁by	-195
▁लाग	-196
ver	-197
▁with	-198
ad	-199
od	-200
धि	-201
▁उप	-202
ir	-203
▁N	-204
ate	-205
am	-206
▁गरि	-207
हरु	-208
▁wh	-209
▁कार्य	-210
ul	-211
ist	-212
ेको	-213
ल्	-214
▁D	-215
▁यस	-216
▁पर्	-217
▁सा	-218
बाट	-219
▁व्य	-220
ab	-221
थि	-222
ep	-223
▁रा	-224
रण	-225
ig	-226
el	-227
▁that	-228
त्	-229
and	-230
▁al	-231
▁गर्ने	-232
▁R	-233
▁he	-234
▁it	-235
ion	-236
▁M	-237
मोज	-238
▁com	-239
मोजिम	-240
स्था	-241
ain	-242
▁स्	-243
ge	-244
न्छ	-245
▁लागि	-246
ess	-247
न्ध	-248
res	-249
▁G	-250
pp	-251
ेर	-252
ant	-253
op	-254
ाइ	-255
em	-256
▁will	-257
if	-258
▁बमोजिम	-259
▁ex	-260
▁B	-261
nt	-262
▁not	-263
▁तथा	-264
red	-265
द्	-266
▁अनु	-267
ity	-268
▁ति	-269
ak	-270
▁गर्नुहोस्	-271
▁st	-272
▁F	-273
▁मानि	-274
ष्ट	-275
योग	-276
........	-277
ly	-278
नै	-279
या	-280
rom	-281
जा	-282
वि	-283
▁यो	-284
बन्ध	-285
ub	-286
▁सु	-287
▁"	-288
ैन	-289
ect	-290
ter	-291
ीहरू	-292
▁this	-293
qu	-294
th	-295
▁मानिस	-296
ाप	-297
▁from	-298
ave	-299
▁तिम	-300
ञ्	-301
▁de	-302
▁E	-303
ru	-304
ङ्	-305
▁any	-306
▁दे	-307
ac	-308
ore	-309
▁ः	-310
▁परम	-311
su	-312
fic	-313
▁भए	-314
्त	-315
नीहरू	-316
▁v	-317
▁अनि	-318
कि	-319
▁कुनै	-320
देश	-321
te	-322
▁परि	-323
▁निर्	-324
▁भएको	-325
ाय	-326
oc	-327
ही	-328
▁थि	-329
▁से	-330
री	-331
ान	-332
▁२	-333
▁१	-334
्न	-335
ort	-336
क्ति	-337
▁per	-338
▁are	-339
▁प्रति	-340
▁को	-341
▁सम्बन्ध	-342
प्र	-343
पाई	-344
▁“	-345
▁सक्	-346
▁ac	-347
न्त	-348
हि	-349
▁क्	-350
ther	-351
पाल	-352
टा	-353
▁has	-354
du	-355
▁H	-356
▁1	-357
▁भन्	-358
▁पा	-359
▁गरी	-360
▁तपाई	-361
ection	-362
धार	-363
ाम	-364
दि	-365
▁k	-366
iv	-367
▁के	-368
▁तिनीहरू	-369
end	-370
▁ने	-371
▁पु	-372
क्र	-373
▁आफ	-374
िति	-375
un	-376
os	-377
ard	-378
ah	-379
नको	-380
▁O	-381
▁have	-382
▁ना	-383
▁me	-384
▁(1	-385
ारी	-386
न्य	-387
vel	-388
pl	-389
ord	-390
▁गर्नु	-391
▁Y	-392
यम	-393
us	-394
फा	-395
रि	-396
▁ध	-397
▁such	-398
ame	-399
our	-400
ूर्	-401
mit	-402
est	-403
▁पनि	-404
▁नेपाल	-405
▁W	-406
erson	-407
खि	-408
▁app	-409
▁क्ष	-410
▁स्व	-411
ount	-412
um	-413
ction	-414
age	-415
पत्र	-416
▁at	-417
▁L	-418
▁व्यव	-419
▁ड	-420
▁may	-421
ans	-422
▁इ	-423
▁im	-424
▁pur	-425
ear	-426
▁his	-427
हाँ	-428
भा	-429
गा	-430
▁सो	-431
▁ch	-432
लि	-433
▁In	-434
▁मानिसहरू	-435
▁all	-436
epal	-437
▁who	-438
▁बा	-439
▁त्यस	-440
erv	-441
ud	-442
▁Nepal	-443
ld	-444
▁(1)	-445
र्थ	-446
lic	-447
▁सर	-448
gh	-449
ile	-450
यन	-451
▁कि	-452
ail	-453
▁your	-454
able	-455
▁2	-456
ure	-457
▁एक	-458
कास	-459
over	-460
ूच	-461
ary	-462
▁हुनेछ	-463
▁se	-464
▁स्था	-465
दन	-466
माण	-467
कारी	-468
ry	-469
ance	-470
ial	-471
▁J	-472
न्द	-473
ated	-474
▁लि	-475
र्ष	-476
we	-477
▁रह	-478
ेत्र	-479
▁le	-480
rou	-481
्रो	-482
▁प्रयोग	-483
▁ऐ	-484
ase	-485
▁sp	-486
▁घ	-487
ध्य	-488
स्तो	-489
लो	-490
▁अव	-491
▁ट	-492
भु	-493
▁Sub	-494
ric	-495
▁हो	-496
▁सञ्	-497
ew	-498
art	-499
▁काम	-500
▁pl	-501
iti	-502
rib	-503
▁व्यक्ति	-504
ap	-505
सा	-506
▁गरे	-507
▁सि	-508
▁भने	-509
▁क्षेत्र	-510
श्य	-511
▁person	-512
चाल	-513
▁तर	-514
के	-515
▁him	-516
ास	-517
▁was	-518
▁छैन	-519
▁en	-520
▁अधि	-521
▁other	-522
जना	-523
ich	-524
▁ad	-525
iz	-526
▁सब	-527
▁विकास	-528
▁pursu	-529
प्रभु	-530
▁गरिएको	-531
velop	-532
ित्र	-533
▁अन्य	-534
▁तपाईँ	-535
tit	-536
▁cont	-537
▁आव	-538
द्य	-539
ालय	-540
overn	-541
▁them	-542
ुप	-543
vid	-544
ीक	-545
र्म	-546
nder	-547
▁pursuant	-548
गत	-549
▁U	-550
ram	-551
र्ता	-552
▁ठ	-553
▁which	-554
▁ले	-555
ाप्त	-556
ice	-557
port	-558
ake	-559
्रा	-560
सम्	-561
▁we	-562
▁out	-563
▁pres	-564
ँग	-565
▁कुरा	-566
▁परमप्रभु	-567
▁तिमीहरू	-568
ign	-569
▁sa	-570
orm	-571
श्यक	-572
▁man	-573
▁ag	-574
▁संस्था	-575
▁Act	-576
ूल	-577
▁समिति	-578
ip	-579
▁मु	-580
overnment	-581
▁inc	-582
▁व्यवस्था	-583
नुहु	-584
ork	-585
▁whe	-586
▁sub	-587
▁op	-588
▁सबै	-589
▁गरेको	-590
▁-	-591
▁ऐन	-592
ाइल	-593
▁आवश्यक	-594
▁Th	-595
▁am	-596
ous	-597
ेक	-598
ाँच	-599
रो	-600
ber	-601
▁विश	-602
▁सेवा	-603
igh	-604
▁सूच	-605
▁ती	-606
▁बढ	-607
ive	-608
▁serv	-609
ted	-610
छि	-611
▁हुने	-612
der	-613
ould	-614
▁२०	-615
lect	-616
दछ	-617
▁comp	-618
▁acc	-619
त्य	-620
ag	-621
low	-622
▁up	-623
▁under	-624
▁प्राप्त	-625
tive	-626
स्ता	-627
00	-628
▁fol	-629
न्त्र	-630
▁there	-631
दै	-632
▁थिए	-633
▁तो	-634
न्न	-635
क्रम	-636
au	-637
ire	-638
्वर	-639
खा	-640
▁पर्नेछ	-641
वे	-642
weh	-643
ahweh	-644
▁dis	-645
tic	-646
▁उत्	-647
ेश्वर	-648
▁सह	-649
ारा	-650
स्तु	-651
▁Com	-652
ade	-653
क्त	-654
▁Yahweh	-655
ाउने	-656
velopment	-657
▁been	-658
ject	-659
ost	-660
्ड	-661
▁us	-662
▁परमेश्वर	-663
▁योज	-664
भि	-665
▁Ch	-666
▁res	-667
▁फाइल	-668
▁योजना	-669
▁To	-670
ाउन	-671
ब्	-672
▁they	-673
▁एउ	-674
ition	-675
ies	-676
form	-677
ution	-678
र्त	-679
▁वर्ष	-680
▁बना	-681
▁गर्दा	-682
ीय	-683
ैले	-684
नुहुन्छ	-685
ood	-686
एका	-687
▁जा	-688
▁दिन	-689
ine	-690
▁त्यस्तो	-691
▁हाम	-692
रू	-693
ven	-694
▁सरकार	-695
्नो	-696
▁दु	-697
▁pre	-698
ities	-699
▁रू	-700
▁K	-701
पर्	-702
ुट	-703
▁made	-704
ast	-705
▁int	-706
सँग	-707
sion	-708
▁reg	-709
मान	-710
ेल	-711
▁If	-712
▁work	-713
▁आफ्नो	-714
हरुको	-715
▁one	-716
▁नाम	-717
दैन	-718
▁बै	-719
ण्ड	-720
▁year	-721
रु	-722
च्	-723
ok	-724
स्थ	-725
▁their	-726
mitte	-727
ating	-728
ीमा	-729
▁no	-730
▁अनुस	-731
ind	-732
fer	-733
▁एउटा	-734
रह	-735
▁सञ्चाल	-736
ime	-737
ult	-738
गर	-739
ose	-740
धिक	-741
▁do	-742
मि	-743
ren	-744
▁हुन	-745
▁if	-746
▁बि	-747
▁em	-748
ौं	-749
▁exp	-750
...	-751
दफा	-752
▁प्रा	-753
▁राख	-754
▁r	-755
द्ध	-756
oy	-757
ned	-758
जी	-759
▁थियो	-760
सम्म	-761
ेट	-762
mittee	-763
▁सम्बन्धित	-764
ङ्क	-765
▁उपदफा	-766
नमा	-767
ong	-768
▁un	-769
one	-770
ाउँ	-771
्री	-772
▁ab	-773
ome	-774
▁थ	-775
▁जि	-776
▁comm	-777
stit	-778
ied	-779
so	-780
▁Government	-781
▁Pro	-782
▁पर्ने	-783
▁ob	-784
tain	-785
ision	-786
fore	-787
▁३	-788
▁offic	-789
ings	-790
▁छो	-791
og	-792
▁अन्त	-793
crib	-794
ली	-795
▁imp	-796
▁land	-797
यमा	-798
▁सक्नेछ	-799
ause	-800
▁follow	-801
▁तिमी	-802
ays	-803
................	-804
▁भयो	-805
ence	-806
ग्	-807
▁कार्यक्रम	-808
क्षण	-809
ेत	-810
▁समा	-811
यु	-812
क्षा	-813
ace	-814
gram	-815
पूर्	-816
▁rel	-817
▁बो	-818
ाली	-819
ib	-820
▁त्यो	-821
▁चा	-822
▁my	-823
▁said	-824
▁af	-825
▁पूर्	-826
स्य	-827
rans	-828
ild	-829
out	-830
ell	-831
▁देख	-832
ations	-833
ष्	-834
ish	-835
▁can	-836
▁(2	-837
्रि	-838
हरूको	-839
ty	-840
।”	-841
हा	-842
▁रूप	-843
पादन	-844
▁time	-845
्ञ	-846
hed	-847
निक	-848
▁अस	-849
▁ar	-850
ploy	-851
ेका	-852
▁conc	-853
▁हुन्छ	-854
are	-855
▁रुप	-856
▁सकि	-857
anc	-858
old	-859
▁set	-860
▁but	-861
▁सद	-862
ue	-863
▁निम्	-864
▁सम्बन्धी	-865
▁rec	-866
cribed	-867
▁मि	-868
▁provid	-869
ोग	-870
▁गरिनेछ	-871
▁दा	-872
ल्ला	-873
▁अधिकार	-874
▁पर्छ	-875
सले	-876
ृत	-877
▁also	-878
ass	-879
▁मात्र	-880
डि	-881
tiv	-882
याँ	-883
ater	-884
▁दफा	-885
▁cl	-886
▁नै	-887
▁नियम	-888
ङ्ग	-889
ments	-890
नियम	-891
▁तोकि	-892
चार	-893
कम	-894
सि	-895
▁program	-896
▁pe	-897
▁file	-898
▁He	-899
ght	-900
▁सम्झ	-901
▁Section	-902
▁निका	-903
▁छन्	-904
ffic	-905
ust	-906
पछि	-907
▁पू	-908
▁into	-909
▁its	-910
▁make	-911
उँ	-912
▁प्रमाण	-913
▁requ	-914
▁चयन	-915
oin	-916
▁सदस्य	-917
erm	-918
ide	-919
▁लग	-920
्वारा	-921
ree	-922
▁रकम	-923
ेरो	-924
▁ढ	-925
▁बमोजिमको	-926
▁केही	-927
▁tra	-928
▁prescribed	-929
▁परिव	-930
▁देखि	-931
वरण	-932
धा	-933
▁development	-934
▁li	-935
▁inv	-936
▁उहाँ	-937
▁सूचना	-938
▁कर्म	-939
मति	-940
ank	-941
▁De	-942
म्प	-943
▁सञ्चालन	-944
section	-945
ee	-946
▁खा	-947
▁form	-948
▁शि	-949
र्ग	-950
ll	-951
▁trans	-952
▁were	-953
ublic	-954
pe	-955
▁prop	-956
▁j	-957
▁This	-958
टो	-959
▁spec	-960
ack	-961
▁concer	-962
ach	-963
iod	-964
oard	-965
▁पुन	-966
ुन	-967
▁५	-968
डा	-969
▁(2)	-970
▁20	-971
▁col	-972
▁हामी	-973
रको	-974
uth	-975
inist	-976
▁employ	-977
▁men	-978
▁so	-979
व्य	-980
ecess	-981
▁'	-982
▁मूल	-983
▁name	-984
▁दिनु	-985
own	-986
▁तपाईं	-987
ie	-988
रमा	-989
ational	-990
und	-991
की	-992
▁भा	-993
▁सर्	-994
वेदन	-995
सु	-996
ons	-997
▁God	-998
▁जो	-999
एल	-1000
ाउनु	-1001
नो	-1002
▁pri	-1003
pt	-1004
मु	-1005
ोल्	-1006
▁ne	-1007
ेमा	-1008
av	-1009
ight	-1010
▁निर्माण	-1011
ise	-1012
dition	-1013
▁पार्	-1014
ेला	-1015
▁ro	-1016
▁रूपमा	-1017
ज्ञ	-1018
ange	-1019
ove	-1020
▁period	-1021
▁अध्य	-1022
▁तिनीहरूले	-1023
कको	-1024
▁रहेको	-1025
पना	-1026
▁वित	-1027
योजना	-1028
▁झ	-1029
▁3	-1030
▁मेरो	-1031
▁कृ	-1032
▁हे	-1033
▁necess	-1034
ally	-1035
चारी	-1036
ission	-1037
डी	-1038
न्ट	-1039
इन	-1040
▁qu	-1041
धारण	-1042
▁पहि	-1043
aw	-1044
नीय	-1045
▁यदि	-1046
ense	-1047
▁again	-1048
▁या	-1049
ctor	-1050
सं	-1051
▁dec	-1052
▁her	-1053
▁Pl	-1054
▁rem	-1055
▁अनुमति	-1056
▁वस्तु	-1057
▁हुँ	-1058
▁service	-1059
▁produ	-1060
शन	-1061
▁order	-1062
."	-1063
उन	-1064
▁चाह	-1065
▁उपल	-1066
▁मो	-1067
▁applic	-1068
द्धि	-1069
ath	-1070
▁प्रत्य	-1071
ority	-1072
▁कर्मचारी	-1073
धन	-1074
्रम	-1075
ff	-1076
stitution	-1077
दे	-1078
▁cons	-1079
▁proc	-1080
दान	-1081
शा	-1082
▁:	-1083
▁किन	-1084
▁४	-1085
००	-1086
stru	-1087
▁निकाय	-1088
▁V	-1089
▁निज	-1090
िका	-1091
नले	-1092
नाले	-1093
nc	-1094
ीकरण	-1095
▁अवधि	-1096
▁case	-1097
▁राज	-1098
▁peop	-1099
हरूलाई	-1100
▁जन	-1101
▁कस	-1102
ved	-1103
▁rece	-1104
▁after	-1105
▁following	-1106
▁आधार	-1107
भयो	-1108
▁amount	-1109
▁गर्नेछ	-1110
ख्या	-1111
हु	-1112
rin	-1113
न्दा	-1114
र्ड	-1115
▁कार्यालय	-1116
▁Con	-1117
▁निम्ति	-1118
▁concerned	-1119
tific	-1120
▁fore	-1121
एमा	-1122
्ने	-1123
abl	-1124
▁विष	-1125
ती	-1126
▁प्रश	-1127
▁तपाईँले	-1128
rule	-1129
▁उपनियम	-1130
▁when	-1131
ey	-1132
ens	-1133
▁sec	-1134
जार	-1135
हाय	-1136
air	-1137
▁राजा	-1138
ang	-1139
▁मह	-1140
ody	-1141
ark	-1142
जन	-1143
▁within	-1144
▁te	-1145
ical	-1146
ix	-1147
▁over	-1148
ेष	-1149
ouse	-1150
भित्र	-1151
▁अर्	-1152
ान्	-1153
▁det	-1154
सार	-1155
▁राष्ट	-1156
▁oper	-1157
▁mem	-1158
wn	-1159
ृद्धि	-1160
▁19	-1161
▁bec	-1162
▁जुन	-1163
▁necessary	-1164
▁Re	-1165
▁means	-1166
▁more	-1167
ules	-1168
▁dist	-1169
ax	-1170
ुझ	-1171
▁For	-1172
rict	-1173
▁des	-1174
र्च	-1175
▁people	-1176
▁जिल्ला	-1177
ener	-1178
कर्ता	-1179
rent	-1180
्रे	-1181
▁देहाय	-1182
द्वारा	-1183
ector	-1184
▁बढी	-1185
▁Is	-1186
ेद	-1187
▁Offic	-1188
▁यी	-1189
xt	-1190
स्तै	-1191
▁Whe	-1192
vail	-1193
▁giv	-1194
▁sc	-1195
▁Committee	-1196
▁उपलब्	-1197
ेरै	-1198
sel	-1199
▁साथ	-1200
▁सन्	-1201
हरूले	-1202
▁मैले	-1203
करण	-1204
▁भू	-1205
ired	-1206
unction	-1207
क्ता	-1208
क्रि	-1209
▁अन्तर्	-1210
▁देश	-1211
ress	-1212
भाव	-1213
▁भएमा	-1214
▁मिति	-1215
▁आदेश	-1216
िता	-1217
),	-1218
▁loc	-1219
▁good	-1220
न्द्र	-1221
▁ent	-1222
▁भएका	-1223
ound	-1224
▁new	-1225
▁विवरण	-1226
▁You	-1227
युक्त	-1228
▁नयाँ	-1229
▁val	-1230
▁समय	-1231
▁Un	-1232
▁पेश	-1233
ष्ठ	-1234
कमा	-1235
▁car	-1236
▁programm	-1237
▁ri	-1238
▁दर्ता	-1239
ेस	-1240
▁लगा	-1241
▁than	-1242
val	-1243
▁Ru	-1244
▁धेरै	-1245
▁प्रत्येक	-1246
▁fin	-1247
ting	-1248
ूह	-1249
श्	-1250
▁इस	-1251
ुल	-1252
▁बच	-1253
edu	-1254
ook	-1255
▁Se	-1256
▁उल्	-1257
▁As	-1258
lement	-1259
उने	-1260
▁हुनु	-1261
▁before	-1262
mission	-1263
▁समेत	-1264
▁project	-1265
ning	-1266
umber	-1267
▁उपलब्ध	-1268
▁कारण	-1269
ferred	-1270
▁these	-1271
▁Board	-1272
ृति	-1273
rough	-1274
ces	-1275
▁appro	-1276
ounc	-1277
▁उत्पादन	-1278
uring	-1279
▁शहर	-1280
फल	-1281
▁पठ	-1282
▁cur	-1283
▁specif	-1284
ia	-1285
▁गर्छ	-1286
शत	-1287
लेख	-1288
ून	-1289
▁औ	-1290
▁मलाई	-1291
भाग	-1292
साय	-1293
aking	-1294
▁hand	-1295
▁issu	-1296
कै	-1297
▁गर्दछ	-1298
▁सार्	-1299
▁विश्व	-1300
▁use	-1301
▁Plan	-1302
▁सेट	-1303
▁विशेष	-1304
▁स्थानीय	-1305
ouncil	-1306
▁accord	-1307
द्योग	-1308
▁हा	-1309
▁प्रतिशत	-1310
▁मे	-1311
▁इस्रा	-1312
ीको	-1313
very	-1314
ट्ट	-1315
▁प्रका	-1316
ech	-1317
▁tw	-1318
▁–	-1319
sp	-1320
र्फ	-1321
▁थप	-1322
▁dep	-1323
▁public	-1324
र्थिक	-1325
gan	-1326
act	-1327
ather	-1328
ond	-1329
formation	-1330
▁No	-1331
icense	-1332
▁child	-1333
▁through	-1334
▁submit	-1335
▁Ex	-1336
सित	-1337
ite	-1338
▁It	-1339
▁dire	-1340
▁sy	-1341
▁आर्थिक	-1342
▁आफ्	-1343
भन्दा	-1344
▁ल्या	-1345
ck	-1346
ration	-1347
▁fil	-1348
▁हाल	-1349
हरूमा	-1350
▁count	-1351
▁incre	-1352
ारि	-1353
▁अद	-1354
ocu	-1355
ished	-1356
▁pol	-1357
▁हि	-1358
▁जाँच	-1359
ph	-1360
ower	-1361
▁समितिको	-1362
▁रुपमा	-1363
▁regist	-1364
▁सम्प	-1365
▁भन्नाले	-1366
चल	-1367
ताको	-1368
ke	-1369
ility	-1370
ारे	-1371
▁भन्दा	-1372
▁par	-1373
ari	-1374
ual	-1375
oss	-1376
▁६	-1377
oint	-1378
नका	-1379
▁जब	-1380
म्भ	-1381
▁where	-1382
एर	-1383
▁रु	-1384
▁Rules	-1385
▁bas	-1386
क्षम	-1387
▁office	-1388
▁against	-1389
get	-1390
▁select	-1391
▁king	-1392
▁application	-1393
चित	-1394
लिक	-1395
▁cer	-1396
fe	-1397
▁प्रवि	-1398
▁कर	-1399
चि	-1400
यार	-1401
▁तब	-1402
▁had	-1403
केको	-1404
▁institution	-1405
▁function	-1406
▁सरकारले	-1407
por	-1408
▁फि	-1409
त्ति	-1410
stem	-1411
vision	-1412
▁उस	-1413
de	-1414
▁खर्च	-1415
tern	-1416
पूर्ण	-1417
▁स्त	-1418
▁दर	-1419
til	-1420
iew	-1421
▁years	-1422
▁Sh	-1423
▁supp	-1424
▁कार	-1425
▁house	-1426
uthority	-1427
▁Council	-1428
उनु	-1429
cent	-1430
▁mat	-1431
हो	-1432
▁main	-1433
लग	-1434
▁go	-1435
▁सके	-1436
▁आयोजना	-1437
▁इस्राएल	-1438
स्ताव	-1439
▁mon	-1440
च्छ	-1441
मुख	-1442
▁post	-1443
▁अभि	-1444
शो	-1445
▁गरिने	-1446
lud	-1447
▁नभ	-1448
rael	-1449
▁Israel	-1450
▁प्रस्ताव	-1451
▁पद	-1452
▁व्या	-1453
म्ब	-1454
▁दिइ	-1455
▁अधिकारी	-1456
▁परिवर्त	-1457
ग्गा	-1458
▁Sc	-1459
▁meet	-1460
▁खु	-1461
▁मानिसहरूले	-1462
▁4	-1463
ural	-1464
मी	-1465
▁cap	-1466
▁स्थापना	-1467
क्ट	-1468
▁only	-1469
▁Am	-1470
▁docu	-1471
ob	-1472
▁number	-1473
जु	-1474
तको	-1475
ute	-1476
▁रो	-1477
हरुलाई	-1478
ुवा	-1479
▁केन्द्र	-1480
▁जग्गा	-1481
्यो	-1482
▁परिष	-1483
ten	-1484
▁given	-1485
▁सम्बन्धमा	-1486
▁own	-1487
▁छोरा	-1488
▁kn	-1489
▁fir	-1490
त्व	-1491
▁पूर्व	-1492
▁परमप्रभुले	-1493
जि	-1494
▁part	-1495
▁law	-1496
▁त्र	-1497
▁ass	-1498
▁महि	-1499
▁information	-1500
▁sector	-1501
urn	-1502
▁तिनीहरूलाई	-1503
▁चि	-1504
▁सिर्	-1505
ness	-1506
▁percent	-1507
ancial	-1508
▁she	-1509
▁काग	-1510
▁बैठ	-1511
नीति	-1512
क्स	-1513
ices	-1514
▁निर्ण	-1515
▁नगर	-1516
दी	-1517
ेशू	-1518
▁प्रकार	-1519
▁गर्दै	-1520
हू	-1521
▁day	-1522
ived	-1523
▁days	-1524
थिति	-1525
▁स्वा	-1526
चा	-1527
वन	-1528
▁5	-1529
▁लेख	-1530
▁कोष	-1531
▁विद्य	-1532
▁क्षेत्रमा	-1533
▁येशू	-1534
▁constru	-1535
ान्व	-1536
▁ra	-1537
▁दिने	-1538
रहेको	-1539
tice	-1540
▁St	-1541
▁परिवर्तन	-1542
▁bu	-1543
▁अनुसार	-1544
▁गु	-1545
echn	-1546
हरुमा	-1547
▁referred	-1548
घि	-1549
ory	-1550
▁सिर्जना	-1551
row	-1552
▁सम्झनु	-1553
▁कार्यान्व	-1554
ror	-1555
▁term	-1556
▁मानिसहरूलाई	-1557
कले	-1558
भिन्न	-1559
▁त्रुट	-1560
▁Ad	-1561
रे	-1562
round	-1563
▁पदा	-1564
▁required	-1565
▁नग	-1566
ties	-1567
▁अन्तर्गत	-1568
्रिय	-1569
vent	-1570
▁विदेश	-1571
▁An	-1572
alth	-1573
पन	-1574
▁कम्प	-1575
ages	-1576
▁list	-1577
▁There	-1578
▁level	-1579
▁पछि	-1580
ock	-1581
▁जी	-1582
्याल	-1583
ैं	-1584
read	-1585
▁On	-1586
▁समूह	-1587
विधा	-1588
▁विभिन्न	-1589
ourt	-1590
▁भूमि	-1591
▁wr	-1592
दर्	-1593
▁कान	-1594
▁implement	-1595
टी	-1596
▁resp	-1597
▁शु	-1598
▁should	-1599
्नु	-1600
ication	-1601
पि	-1602
▁मान	-1603
▁भाग	-1604
▁contain	-1605
▁license	-1606
▁अध्यक्ष	-1607
देखि	-1608
▁body	-1609
▁७	-1610
▁employee	-1611
▁जान	-1612
▁अधिक	-1613
cc	-1614
▁अर्को	-1615
ret	-1616
▁मन्त्र	-1617
▁children	-1618
▁Development	-1619
ors	-1620
▁indu	-1621
ization	-1622
▁संशो	-1623
▁Wh	-1624
▁system	-1625
▁son	-1626
▁fac	-1627
▁पाल	-1628
▁plan	-1629
▁those	-1630
▁cor	-1631
▁ताल	-1632
▁organ	-1633
▁foreign	-1634
▁घर	-1635
▁व्यवसाय	-1636
डर	-1637
▁off	-1638
▁कृष	-1639
▁सुविधा	-1640
▁कुञ्	-1641
person	-1642
az	-1643
नेछन्	-1644
▁fe	-1645
▁est	-1646
▁indust	-1647
द्र	-1648
aken	-1649
▁सक्ने	-1650
led	-1651
स्थ्य	-1652
वज	-1653
▁त्रुटि	-1654
▁लेखि	-1655
प्	-1656
▁प्रमुख	-1657
ining	-1658
▁key	-1659
▁सन्देश	-1660
▁place	-1661
ered	-1662
▁used	-1663
छन्	-1664
ध्ये	-1665
▁say	-1666
▁add	-1667
▁cre	-1668
▁अवस्था	-1669
▁त्यहाँ	-1670
▁परमेश्वरले	-1671
▁&	-1672
▁खण्ड	-1673
▁lo	-1674
▁सकेन	-1675
esti	-1676
▁माथि	-1677
▁like	-1678
▁बी	-1679
▁बचत	-1680
ible	-1681
hold	-1682
▁def	-1683
▁स्वीक	-1684
--	-1685
वजनिक	-1686
▁निर्णय	-1687
▁financial	-1688
ामा	-1689
▁सामा	-1690
▁give	-1691
onom	-1692
ward	-1693
airperson	-1694
▁bl	-1695
▁establ	-1696
▁goods	-1697
▁पृ	-1698
ts	-1699
▁ear	-1700
यन्त्र	-1701
▁तोकिए	-1702
▁व्यक्तिले	-1703
ble	-1704
वेश	-1705
स्थित	-1706
वारी	-1707
▁Rule	-1708
▁open	-1709
▁while	-1710
▁obtain	-1711
▁९	-1712
तमा	-1713
▁भन्नु	-1714
ूर	-1715
▁भन्ने	-1716
टन	-1717
▁छवि	-1718
▁Minist	-1719
ails	-1720
▁संर	-1721
▁सार्वजनिक	-1722
ative	-1723
सी	-1724
indow	-1725
वाद	-1726
iel	-1727
▁relating	-1728
▁does	-1729
ाउनुहोस्	-1730
▁सङ्	-1731
▁come	-1732
ल्प	-1733
धान	-1734
▁तयार	-1735
भर	-1736
▁ve	-1737
bers	-1738
▁जस्तै	-1739
ilities	-1740
not	-1741
▁eff	-1742
▁शिक्षा	-1743
ize	-1744
▁जना	-1745
▁Not	-1746
▁उद्योग	-1747
les	-1748
▁निर्धारण	-1749
▁act	-1750
▁अदाल	-1751
aving	-1752
▁कागजा	-1753
▁अघि	-1754
▁प्रदान	-1755
cy	-1756
▁includ	-1757
▁विभाग	-1758
▁तह	-1759
▁परिषद्	-1760
▁म्या	-1761
▁पूरा	-1762
▁सरकारी	-1763
▁ऋ	-1764
▁कार्यान्वयन	-1765
त्म	-1766
ries	-1767
other	-1768
ring	-1769
▁local	-1770
▁two	-1771
▁पानी	-1772
▁country	-1773
▁water	-1774
▁विस्त	-1775
▁दृ	-1776
▁pay	-1777
▁डे	-1778
ज्ञा	-1779
▁नीति	-1780
▁take	-1781
▁बाह	-1782
▁because	-1783
reat	-1784
▁down	-1785
ष्टि	-1786
थम	-1787
▁date	-1788
▁आफ्ना	-1789
गम	-1790
र्या	-1791
▁pass	-1792
oth	-1793
▁प्रमाणपत्र	-1794
▁तिमीहरूले	-1795
▁लगानी	-1796
ंक	-1797
▁सुरु	-1798
tificate	-1799
▁८	-1800
प्त	-1801
▁जसले	-1802
▁Dist	-1803
▁दाय	-1804
▁avail	-1805
▁सहाय	-1806
▁right	-1807
▁gener	-1808
▁%	-1809
▁even	-1810
▁techn	-1811
▁पाठ	-1812
▁They	-1813
ड्	-1814
▁But	-1815
artment	-1816
▁तपाईँको	-1817
▁रे	-1818
▁बुझ	-1819
ature	-1820
▁उद्	-1821
निर्	-1822
▁विषय	-1823
▁about	-1824
▁mention	-1825
▁same	-1826
ient	-1827
▁bank	-1828
▁Office	-1829
▁import	-1830
▁मूल्य	-1831
▁comple	-1832
ination	-1833
ief	-1834
illion	-1835
नलाई	-1836
▁committee	-1837
▁current	-1838
hip	-1839
▁condu	-1840
▁फोल्	-1841
से	-1842
▁स्वास्थ्य	-1843
self	-1844
▁during	-1845
▁selected	-1846
▁ऋण	-1847
▁proper	-1848
roup	-1849
▁उल्लेख	-1850
▁cent	-1851
▁मन्त्रालय	-1852
▁area	-1853
▁mark	-1854
▁साथै	-1855
ants	-1856
▁पत्र	-1857
▁कुञ्जी	-1858
▁खोज	-1859
ft	-1860
▁activ	-1861
▁bro	-1862
▁account	-1863
मो	-1864
▁यसको	-1865
▁निर्देश	-1866
▁रङ	-1867
▁being	-1868
▁प्रण	-1869
▁prom	-1870
▁डि	-1871
ates	-1872
▁perform	-1873
शी	-1874
otion	-1875
▁माल	-1876
▁प्रभाव	-1877
मित	-1878
▁कृषि	-1879
▁नियन्त्र	-1880
ितो	-1881
▁Sec	-1882
▁न्या	-1883
वी	-1884
▁‘	-1885
ption	-1886
▁know	-1887
▁provide	-1888
▁co	-1889
ember	-1890
▁inte	-1891
▁प्रार	-1892
ized	-1893
▁वित्त	-1894
दो	-1895
▁हट	-1896
▁government	-1897
▁स्ट	-1898
ines	-1899
▁ful	-1900
▁ru	-1901
्रोत	-1902
▁ec	-1903
पु	-1904
▁घट	-1905
arm	-1906
च्च	-1907
▁meeting	-1908
ital	-1909
▁first	-1910
ources	-1911
▁दुई	-1912
▁among	-1913
ield	-1914
स्क	-1915
▁making	-1916
▁प्रारम्भ	-1917
यर	-1918
amp	-1919
▁word	-1920
▁6	-1921
dule	-1922
▁according	-1923
▁ser	-1924
▁specified	-1925
▁programmes	-1926
ंश	-1927
▁सुर	-1928
hedule	-1929
▁inst	-1930
▁available	-1931
हार	-1932
▁came	-1933
ेरि	-1934
लको	-1935
▁अब	-1936
▁परी	-1937
▁without	-1938
ousand	-1939
झ्याल	-1940
▁found	-1941
▁विदेशी	-1942
lease	-1943
न्ड	-1944
रुप	-1945
▁prep	-1946
भू	-1947
▁reas	-1948
त्मक	-1949
ित्व	-1950
000	-1951
▁father	-1952
हिले	-1953
▁सम्पत्ति	-1954
▁यहू	-1955
▁report	-1956
धारित	-1957
▁Could	-1958
▁सम्म	-1959
ular	-1960
▁लक्ष	-1961
▁प्रदर्	-1962
▁बाँ	-1963
▁कम	-1964
देश्य	-1965
▁District	-1966
▁अनुमतिपत्र	-1967
र्न	-1968
anding	-1969
▁prin	-1970
ective	-1971
▁fram	-1972
▁कर्त	-1973
▁ठे	-1974
▁वै	-1975
▁call	-1976
पर्ने	-1977
▁शा	-1978
▁कुल	-1979
▁सजा	-1980
▁(1),	-1981
▁month	-1982
▁वितरण	-1983
्याङ्क	-1984
टक	-1985
शु	-1986
▁Cl	-1987
▁रि	-1988
सो	-1989
ters	-1990
▁then	-1991
▁गरिएका	-1992
rest	-1993
omm	-1994
यात	-1995
▁वित्तीय	-1996
▁received	-1997
▁बस्	-1998
▁तोकिएको	-1999
▁गरेका	-2000
▁किस	-2001
▁सञ्झ्याल	-2002
ज्य	-2003
▁each	-2004
▁संशोधन	-2005
▁econom	-2006
gation	-2007
▁त्यसपछि	-2008
ूची	-2009
▁bet	-2010
▁mod	-2011
uation	-2012
▁विक	-2013
▁धितो	-2014
सम	-2015
up	-2016
owers	-2017
▁every	-2018
फि	-2019
▁एव	-2020
ठन	-2021
educ	-2022
▁services	-2023
▁योग	-2024
▁window	-2025
▁भित्र	-2026
▁कर्तव्य	-2027
ving	-2028
▁purp	-2029
ures	-2030
भने	-2031
▁command	-2032
▁addition	-2033
ग्र	-2034
पर्छ	-2035
▁उहाँले	-2036
its	-2037
▁सात	-2038
रिद	-2039
▁construction	-2040
▁polic	-2041
ner	-2042
▁--	-2043
▁सक्छ	-2044
जत	-2045
▁ताप	-2046
जिक	-2047
▁provided	-2048
▁char	-2049
ality	-2050
▁उद्देश्य	-2051
र्ने	-2052
▁educ	-2053
मे	-2054
▁क्रम	-2055
ited	-2056
▁mess	-2057
▁गराउने	-2058
▁health	-2059
▁conf	-2060
चिव	-2061
of	-2062
▁decision	-2063
▁उसले	-2064
नेछु	-2065
▁बाल	-2066
).	-2067
▁disc	-2068
▁मुख	-2069
बार	-2070
▁did	-2071
▁cause	-2072
▁खोल्	-2073
▁taken	-2074
ricult	-2075
▁rep	-2076
▁स्थान	-2077
▁conduct	-2078
▁let	-2079
ceed	-2080
▁poss	-2081
▁आवश्यकता	-2082
तिम	-2083
ale	-2084
▁att	-2085
iness	-2086
▁हर	-2087
गो	-2088
पूर्ति	-2089
▁किनभने	-2090
ife	-2091
▁ठू	-2092
▁ठाउँ	-2093
▁उपयोग	-2094
खित	-2095
▁खरिद	-2096
▁गरेमा	-2097
▁stud	-2098
rol	-2099
▁नस	-2100
जाजत	-2101
▁Dep	-2102
▁carry	-2103
▁दिएको	-2104
itor	-2105
▁dif	-2106
▁provision	-2107
▁२०४	-2108
▁फर्	-2109
▁साम	-2110
▁गरेर	-2111
▁कारबा	-2112
▁invest	-2113
▁Ar	-2114
▁want	-2115
▁कागजात	-2116
▁सूची	-2117
▁दो	-2118
▁समितिले	-2119
▁नो	-2120
पर	-2121
्यान	-2122
▁ग्र	-2123
▁back	-2124
▁ty	-2125
tif	-2126
tives	-2127
▁see	-2128
minist	-2129
सम्बन्ध	-2130
▁7	-2131
way	-2132
▁पर्य	-2133
▁कन्	-2134
▁notice	-2135
▁जानकारी	-2136
कारण	-2137
▁tax	-2138
▁रोज	-2139
▁Ministry	-2140
वार	-2141
म्मा	-2142
tions	-2143
▁some	-2144
▁ढाँच	-2145
▁निवेदन	-2146
▁तिमीहरूलाई	-2147
▁gra	-2148
▁ind	-2149
▁बन्द	-2150
तर	-2151
▁प्रचल	-2152
▁enc	-2153
▁कुराहरू	-2154
▁Schedule	-2155
▁पाउने	-2156
▁इजाजत	-2157
▁certificate	-2158
ined	-2159
hes	-2160
▁dat	-2161
▁having	-2162
▁सम्झौ	-2163
▁प्रतिवेदन	-2164
टि	-2165
सुकै	-2166
▁अस्	-2167
any	-2168
▁कानून	-2169
▁बे	-2170
▁need	-2171
▁sign	-2172
▁अनुसन्ध	-2173
▁exist	-2174
▁१०	-2175
▁प्रशास	-2176
तम	-2177
▁mentioned	-2178
▁secur	-2179
▁सी	-2180
क्रिया	-2181
▁कारबाही	-2182
संग	-2183
ailed	-2184
▁प्रणाली	-2185
▁Select	-2186
▁लेखिएको	-2187
▁परमप्रभुको	-2188
▁image	-2189
ऊद	-2190
ract	-2191
▁अरू	-2192
ession	-2193
▁लक्ष्य	-2194
ल्य	-2195
▁condition	-2196
षण	-2197
hic	-2198
एन	-2199
heck	-2200
▁तीन	-2201
▁तापनि	-2202
▁बाहेक	-2203
▁कम्पनी	-2204
लमा	-2205
cept	-2206
हरूका	-2207
▁सजाय	-2208
▁समक्ष	-2209
▁परमेश्वरको	-2210
ves	-2211
ब्द	-2212
▁Can	-2213
▁अति	-2214
ल्ट	-2215
▁du	-2216
ared	-2217
▁बिक	-2218
▁नियन्त्रण	-2219
▁ऐनको	-2220
▁छा	-2221
▁व्याप	-2222
ulation	-2223
▁get	-2224
ाई	-2225
यास	-2226
▁...	-2227
▁अप	-2228
▁distrib	-2229
▁प्रो	-2230
▁एवं	-2231
धी	-2232
न्तर	-2233
▁यसलाई	-2234
tal	-2235
▁टे	-2236
▁आयोग	-2237
्नुहोस्	-2238
▁functions	-2239
play	-2240
ased	-2241
▁सवारी	-2242
edi	-2243
▁अध्ययन	-2244
▁Bank	-2245
▁ext	-2246
▁our	-2247
erc	-2248
▁फो	-2249
ected	-2250
▁bus	-2251
tity	-2252
▁अनुसन्धान	-2253
ases	-2254
▁दाऊद	-2255
▁member	-2256
aid	-2257
▁प्	-2258
▁लो	-2259
▁अधिकृत	-2260
▁maintain	-2261
olog	-2262
▁million	-2263
▁तिनी	-2264
▁विस्तार	-2265
▁भई	-2266
वाला	-2267
▁प्रचलित	-2268
lection	-2269
ool	-2270
agement	-2271
▁आधारमा	-2272
▁vehic	-2273
▁था	-2274
▁Reg	-2275
▁शब्द	-2276
▁होइन	-2277
▁सहयोग	-2278
बी	-2279
दाय	-2280
▁यु	-2281
▁तिमीले	-2282
:-	-2283
▁ओ	-2284
▁छु	-2285
ैठ	-2286
▁भु	-2287
▁way	-2288
▁production	-2289
▁जुनसुकै	-2290
pees	-2291
ried	-2292
▁अन्	-2293
▁ret	-2294
▁बृद्धि	-2295
▁vari	-2296
▁Le	-2297
▁offer	-2298
ick	-2299
ator	-2300
▁छुट	-2301
▁किसिम	-2302
▁फोल्डर	-2303
वै	-2304
ful	-2305
nter	-2306
▁here	-2307
▁don	-2308
▁priv	-2309
▁basis	-2310
▁subject	-2311
डीई	-2312
▁App	-2313
▁तल	-2314
ween	-2315
डान	-2316
▁व्यक्तिलाई	-2317
▁allow	-2318
म्रो	-2319
▁राष्ट्र	-2320
▁आफू	-2321
▁document	-2322
ामी	-2323
▁अनुसूची	-2324
▁गराउन	-2325
ीहरूले	-2326
▁नियमा	-2327
थमिक	-2328
▁कायम	-2329
▁पि	-2330
▁ph	-2331
▁बाहि	-2332
standing	-2333
▁हुनुहुन्छ	-2334
app	-2335
ault	-2336
ishment	-2337
thing	-2338
▁लिन	-2339
▁जस	-2340
हरुले	-2341
▁Cor	-2342
▁कारो	-2343
▁process	-2344
▁राष्ट्रिय	-2345
नामा	-2346
▁members	-2347
▁went	-2348
▁determ	-2349
टर	-2350
▁8	-2351
ees	-2352
,000	-2353
▁could	-2354
रहेका	-2355
पो	-2356
द्दा	-2357
▁माग	-2358
च्छेद	-2359
▁लागू	-2360
ash	-2361
▁between	-2362
▁समयमा	-2363
सम्बन्धी	-2364
▁जे	-2365
▁end	-2366
▁सुधार	-2367
▁गो	-2368
▁equ	-2369
▁value	-2370
▁प्राथमिक	-2371
▁Ph	-2372
▁stand	-2373
▁लु	-2374
▁अर्थ	-2375
▁district	-2376
▁says	-2377
▁projects	-2378
▁परिवार	-2379
पी	-2380
mb	-2381
ents	-2382
▁पुग	-2383
▁जल	-2384
oses	-2385
▁सक्नुहुन्छ	-2386
▁Z	-2387
▁तिम्रो	-2388
नाको	-2389
▁बजार	-2390
▁बिक्री	-2391
gy	-2392
ुत	-2393
ious	-2394
▁केडीई	-2395
▁त्यसको	-2396
▁सम्झौता	-2397
▁start	-2398
▁विकल्प	-2399
▁facilities	-2400
▁X	-2401
▁works	-2402
▁sin	-2403
▁विषयमा	-2404
बमोजिम	-2405
▁मुख्य	-2406
कु	-2407
eep	-2408
▁हुन्	-2409
ource	-2410
▁पारि	-2411
▁स्रोत	-2412
▁नियमाव	-2413
▁प्रयास	-2414
▁मुद्दा	-2415
aj	-2416
ल्लो	-2417
▁पो	-2418
▁असफल	-2419
▁सम्पादन	-2420
विधिक	-2421
▁authority	-2422
als	-2423
▁पूजा	-2424
▁ठेगा	-2425
▁reason	-2426
▁फेला	-2427
▁enter	-2428
▁saying	-2429
▁Department	-2430
▁Commission	-2431
▁गुण	-2432
▁शक्ति	-2433
माथि	-2434
▁दिए	-2435
▁स्थिति	-2436
ँदैन	-2437
बुझ	-2438
▁activities	-2439
▁यहाँ	-2440
gin	-2441
▁गठन	-2442
▁स्प	-2443
me	-2444
opy	-2445
▁deem	-2446
▁सक्षम	-2447
षा	-2448
पया	-2449
▁Jud	-2450
ys	-2451
▁इजाजतपत्र	-2452
▁इस्राएलका	-2453
▁record	-2454
▁चौ	-2455
▁When	-2456
▁हजार	-2457
▁format	-2458
▁fl	-2459
▁चाल	-2460
▁प्रदर्शन	-2461
▁जारी	-2462
विद्य	-2463
▁done	-2464
भव	-2465
▁विश्वास	-2466
▁आएको	-2467
▁उपकरण	-2468
king	-2469
▁उपभ	-2470
▁interest	-2471
▁prof	-2472
▁भनी	-2473
▁met	-2474
▁बाटो	-2475
▁आदि	-2476
▁यस्तो	-2477
▁powers	-2478
▁संरक्षण	-2479
ris	-2480
द्द	-2481
▁अवधिमा	-2482
▁Provid	-2483
▁अनुमान	-2484
ai	-2485
▁प्रयोगकर्ता	-2486
▁head	-2487
less	-2488
▁writ	-2489
▁would	-2490
▁Al	-2491
▁high	-2492
▁persons	-2493
onment	-2494
▁मुद्र	-2495
uted	-2496
▁Sp	-2497
▁sur	-2498
▁प्रकाशन	-2499
▁partic	-2500
लाइ	-2501
ivers	-2502
with	-2503
▁न्य	-2504
खास्त	-2505
▁group	-2506
परि	-2507
र्ण	-2508
र्जा	-2509
earch	-2510
undred	-2511
▁योग्य	-2512
▁ठेगाना	-2513
▁क्षेत्रको	-2514
ubl	-2515
वित्र	-2516
▁हुँदैन	-2517
tial	-2518
▁कृपया	-2519
रोध	-2520
क्षक	-2521
▁rate	-2522
▁पुनरा	-2523
▁programme	-2524
unic	-2525
▁anything	-2526
▁lab	-2527
ढा	-2528
▁areas	-2529
▁field	-2530
▁भन्नुभयो	-2531
ivil	-2532
डियो	-2533
▁build	-2534
पत	-2535
▁text	-2536
▁another	-2537
▁files	-2538
▁resources	-2539
क्षित	-2540
दार	-2541
▁gr	-2542
▁पाप	-2543
▁three	-2544
कूल	-2545
otor	-2546
▁well	-2547
retary	-2548
▁जडान	-2549
▁develop	-2550
▁wom	-2551
पाद	-2552
विधि	-2553
लिपि	-2554
▁training	-2555
▁del	-2556
▁संस्थाको	-2557
▁region	-2558
▁फेरि	-2559
▁पृष्ठ	-2560
▁तिनीहरूको	-2561
ced	-2562
▁folder	-2563
▁गा	-2564
▁pun	-2565
▁कसैले	-2566
word	-2567
चालन	-2568
▁er	-2569
▁total	-2570
imum	-2571
▁गरियो	-2572
▁देहायका	-2573
oci	-2574
▁put	-2575
▁बता	-2576
▁Chairperson	-2577
▁contained	-2578
▁economic	-2579
▁diffe	-2580
▁related	-2581
▁Ind	-2582
▁One	-2583
▁यसकारण	-2584
▁आय	-2585
ever	-2586
▁increase	-2587
▁उठ	-2588
▁min	-2589
▁सँग	-2590
▁बोल	-2591
▁director	-2592
नेको	-2593
▁तर्	-2594
▁things	-2595
▁संख्या	-2596
लग्न	-2597
▁action	-2598
न्तरण	-2599
▁अदालत	-2600
▁१९	-2601
▁vehicle	-2602
▁Dire	-2603
▁ठूलो	-2604
eration	-2605
▁हेर	-2606
▁national	-2607
▁book	-2608
▁कन्फि	-2609
poration	-2610
rop	-2611
▁sent	-2612
▁अवस्थामा	-2613
उँछ	-2614
मित्त	-2615
▁यसले	-2616
▁publ	-2617
ser	-2618
osed	-2619
शले	-2620
▁वृद्धि	-2621
▁present	-2622
▁होस्	-2623
▁वर्षको	-2624
▁रुपै	-2625
▁निमित्त	-2626
ars	-2627
▁कारोबार	-2628
▁दरखास्त	-2629
ंग	-2630
▁show	-2631
▁view	-2632
▁Authority	-2633
ati	-2634
▁शै	-2635
to	-2636
▁संग	-2637
▁great	-2638
▁state	-2639
▁प्रक्रिया	-2640
▁En	-2641
▁समु	-2642
............	-2643
▁Gener	-2644
▁श्री	-2645
दिष्ट	-2646
▁business	-2647
योजन	-2648
▁भुक्ता	-2649
iry	-2650
▁म्याद	-2651
▁sit	-2652
apter	-2653
▁motor	-2654
▁agricult	-2655
ily	-2656
▁तालिम	-2657
▁company	-2658
▁अहिले	-2659
▁Man	-2660
▁details	-2661
▁prevail	-2662
▁transport	-2663
यी	-2664
▁सचिव	-2665
▁purpose	-2666
ended	-2667
▁Name	-2668
▁हालको	-2669
▁व्यवस्थापन	-2670
▁pric	-2671
ency	-2672
aus	-2673
▁gu	-2674
▁Im	-2675
स्या	-2676
▁Please	-2677
निर्धारित	-2678
▁अझ	-2679
मेर	-2680
▁conn	-2681
▁जस्तो	-2682
▁पढ	-2683
▁तिमीलाई	-2684
▁fam	-2685
0.	-2686
योज	-2687
▁Court	-2688
▁intern	-2689
ification	-2690
▁प्राविधिक	-2691
▁समावेश	-2692
urement	-2693
▁बनाउन	-2694
▁operation	-2695
▁Serv	-2696
▁पक्ष	-2697
▁/	-2698
तर्फ	-2699
खत	-2700
ेन	-2701
▁registration	-2702
न्स	-2703
▁ir	-2704
▁aut	-2705
▁निर्दिष्ट	-2706
▁सहायता	-2707
▁export	-2708
▁support	-2709
▁पदार्थ	-2710
▁उपयुक्त	-2711
ither	-2712
ustom	-2713
▁must	-2714
▁उसको	-2715
▁राखि	-2716
▁समाप्त	-2717
बद्ध	-2718
▁forth	-2719
▁निजको	-2720
▁परिच्छेद	-2721
▁established	-2722
estim	-2723
▁खाली	-2724
▁chang	-2725
▁बाहिर	-2726
▁income	-2727
▁प्रतिलिपि	-2728
▁ऊ	-2729
▁मन्	-2730
▁शर्त	-2731
शित	-2732
▁Da	-2733
ण्ट	-2734
तिक	-2735
श्र	-2736
गरिक	-2737
▁पुर्	-2738
▁जम्मा	-2739
▁कन्फिगर	-2740
▁योजनाको	-2741
▁lim	-2742
▁बार	-2743
▁स्वीकृति	-2744
▁sm	-2745
▁बैठक	-2746
ability	-2747
▁भइ	-2748
▁नाउँ	-2749
▁मौ	-2750
▁non	-2751
▁ten	-2752
▁exam	-2753
कल	-2754
याह	-2755
▁upon	-2756
▁issue	-2757
तिर	-2758
▁private	-2759
बि	-2760
▁Set	-2761
▁Er	-2762
▁निजी	-2763
▁पहिलो	-2764
▁पवित्र	-2765
▁नागरिक	-2766
▁चला	-2767
मती	-2768
▁बोलपत्र	-2769
▁सर्व	-2770
▁राजपत्र	-2771
र्श	-2772
▁imm	-2773
▁thousand	-2774
hen	-2775
▁remain	-2776
चन	-2777
▁Ab	-2778
▁Chapter	-2779
▁सम्पूर्ण	-2780
▁road	-2781
▁fund	-2782
▁Provided	-2783
▁सभा	-2784
▁tar	-2785
▁गए	-2786
▁run	-2787
▁मेट	-2788
▁पहिले	-2789
▁matters	-2790
▁(3	-2791
त्या	-2792
▁बोर्ड	-2793
▁property	-2794
▁9	-2795
illage	-2796
▁मध्य	-2797
▁away	-2798
समा	-2799
▁exec	-2800
▁All	-2801
▁गै	-2802
▁क्या	-2803
▁David	-2804
▁व्यापार	-2805
▁मेरा	-2806
▁issued	-2807
▁Officer	-2808
put	-2809
▁read	-2810
तो	-2811
▁संलग्न	-2812
▁नियमावली	-2813
▁बीच	-2814
ird	-2815
न्छन्	-2816
त्ता	-2817
▁Director	-2818
irc	-2819
azet	-2820
▁type	-2821
रीक्षण	-2822
▁class	-2823
▁market	-2824
sum	-2825
ित्	-2826
▁sk	-2827
▁duties	-2828
▁अन	-2829
ैनिक	-2830
range	-2831
▁many	-2832
▁officer	-2833
orn	-2834
▁नभएको	-2835
▁display	-2836
ready	-2837
▁तपाईंले	-2838
▁गण	-2839
▁data	-2840
▁power	-2841
▁मूल्याङ्क	-2842
▁.	-2843
▁सड	-2844
▁Now	-2845
▁rest	-2846
▁उनले	-2847
▁Error	-2848
▁submitted	-2849
▁क्लिक	-2850
▁भि	-2851
rought	-2852
▁त्यसरी	-2853
uch	-2854
▁पर्दछ	-2855
▁यहूदा	-2856
उनुहोस्	-2857
▁install	-2858
▁मृ	-2859
▁यसरी	-2860
▁Rs	-2861
▁what	-2862
▁हस्ता	-2863
▁व्यक्तिको	-2864
▁चाहनुहुन्छ	-2865
▁न्याय	-2866
वाह	-2867
▁निश्	-2868
▁thereof	-2869
▁now	-2870
र्षिक	-2871
▁keep	-2872
ote	-2873
मध्ये	-2874
ks	-2875
विक	-2876
withstanding	-2877
▁(19	-2878
▁Then	-2879
▁control	-2880
सर	-2881
▁कम्	-2882
▁eval	-2883
▁निकास	-2884
▁१२	-2885
ials	-2886
ीहरूलाई	-2887
▁स्पष्ट	-2888
▁pop	-2889
▁चल	-2890
ग्री	-2891
▁२०६	-2892
त्रु	-2893
▁spe	-2894
▁different	-2895
ral	-2896
▁औष	-2897
▁मन्दि	-2898
छु	-2899
▁called	-2900
▁cle	-2901
▁बैंक	-2902
▁whether	-2903
चित्र	-2904
ron	-2905
▁सिफ	-2906
▁उच्च	-2907
▁भुक्तानी	-2908
वास	-2909
▁साइ	-2910
illed	-2911
▁खो	-2912
▁aud	-2913
▁elect	-2914
▁महत्व	-2915
ged	-2916
▁यसर्थ	-2917
▁पिता	-2918
▁अन्तिम	-2919
▁sons	-2920
▁Op	-2921
▁१५	-2922
नुसार	-2923
▁क्षम	-2924
▁color	-2925
▁various	-2926
रिका	-2927
▁यरू	-2928
▁cost	-2929
▁पालन	-2930
▁भएपछि	-2931
▁११	-2932
▁education	-2933
▁investment	-2934
▁obj	-2935
▁पूर्वनिर्धारित	-2936
▁प्रविधि	-2937
▁documents	-2938
view	-2939
▁server	-2940
शक्ति	-2941
rial	-2942
जामती	-2943
▁grow	-2944
शि	-2945
▁Be	-2946
▁Public	-2947
lp	-2948
▁nor	-2949
▁already	-2950
ठित	-2951
▁until	-2952
▁रहेका	-2953
arch	-2954
▁भेट	-2955
▁contract	-2956
▁अधिकारीले	-2957
.2	-2958
▁यू	-2959
▁Rep	-2960
▁long	-2961
▁assist	-2962
▁Corporation	-2963
▁सकिँदैन	-2964
▁Jes	-2965
▁error	-2966
णी	-2967
ल्या	-2968
▁हुला	-2969
▁Notwithstanding	-2970
atic	-2971
▁dem	-2972
▁Fund	-2973
▁तपाईंको	-2974
io	-2975
▁पाँच	-2976
पति	-2977
▁dele	-2978
▁civil	-2979
▁निजामती	-2980
ड्ढ	-2981
क्टर	-2982
विद्यालय	-2983
ple	-2984
शलेम	-2985
लु	-2986
▁design	-2987
▁Lord	-2988
▁Chief	-2989
itiz	-2990
uty	-2991
▁कै	-2992
▁therefore	-2993
▁Loc	-2994
▁court	-2995
▁least	-2996
▁mater	-2997
▁सिफारि	-2998
.1	-2999
▁earth	-3000
चना	-3001
▁address	-3002
▁section	-3003
▁prevailing	-3004
iden	-3005
▁recomm	-3006
▁पूर्वा	-3007
▁समस्या	-3008
०००	-3009
▁security	-3010
मै	-3011
▁ann	-3012
▁sett	-3013
lick	-3014
▁Res	-3015
▁While	-3016
ger	-3017
कलाई	-3018
कन	-3019
दाता	-3020
▁General	-3021
▁brought	-3022
रोड	-3023
▁पार	-3024
▁both	-3025
isc	-3026
थे	-3027
▁गैर	-3028
▁वर्ग	-3029
ारो	-3030
▁send	-3031
▁दस्तु	-3032
▁deemed	-3033
▁estim	-3034
▁prot	-3035
▁approval	-3036
▁प्रविष्ट	-3037
▁adv	-3038
▁अगा	-3039
▁सहित	-3040
▁प्रतिनि	-3041
▁विद्युत	-3042
▁pr	-3043
▁Jer	-3044
▁द्वारा	-3045
▁dest	-3046
▁राख्न	-3047
▁commit	-3048
▁मोशा	-3049
▁mul	-3050
▁जीवन	-3051
क्ने	-3052
▁तरिका	-3053
▁तुल	-3054
▁using	-3055
tification	-3056
▁employees	-3057
ately	-3058
ges	-3059
▁policy	-3060
▁199	-3061
▁dra	-3062
▁जवा	-3063
oad	-3064
endment	-3065
iversity	-3066
▁यरूशलेम	-3067
▁five	-3068
ox	-3069
केत	-3070
ough	-3071
▁उनी	-3072
यौ	-3073
▁carried	-3074
▁धितोपत्र	-3075
iah	-3076
▁Ag	-3077
change	-3078
▁inter	-3079
▁निम्न	-3080
eal	-3081
▁उसलाई	-3082
▁सकिने	-3083
▁राम्रो	-3084
pri	-3085
त्यु	-3086
▁स्वत	-3087
▁ins	-3088
▁नहु	-3089
वल	-3090
▁गर्नका	-3091
▁कार्यविधि	-3092
जे	-3093
▁चार	-3094
chool	-3095
▁bring	-3096
▁due	-3097
▁वार्षिक	-3098
▁conditions	-3099
▁वन	-3100
▁aff	-3101
▁left	-3102
ointed	-3103
▁निकायले	-3104
▁Use	-3105
स्थिति	-3106
▁create	-3107
▁obtained	-3108
▁समर्थ	-3109
दर	-3110
▁करोड	-3111
बो	-3112
▁four	-3113
▁commun	-3114
▁standard	-3115
द्या	-3116
▁ren	-3117
▁पशु	-3118
▁हात	-3119
▁fine	-3120
पालिका	-3121
कृति	-3122
▁impro	-3123
▁change	-3124
▁राख्नु	-3125
▁राज्य	-3126
▁हामीलाई	-3127
▁Do	-3128
▁उपर	-3129
ोक्ता	-3130
▁मानिसले	-3131
वधि	-3132
▁लेखा	-3133
▁option	-3134
▁Tw	-3135
ruct	-3136
▁स्तर	-3137
▁heart	-3138
▁सरकारको	-3139
▁special	-3140
endit	-3141
▁पार्न	-3142
▁default	-3143
▁city	-3144
▁वाता	-3145
ाइएको	-3146
▁mount	-3147
▁$	-3148
▁lay	-3149
▁बहु	-3150
लिखित	-3151
▁find	-3152
▁tem	-3153
▁गर्नको	-3154
▁नेपाली	-3155
▁लिई	-3156
▁शत्रु	-3157
वाई	-3158
▁help	-3159
▁contin	-3160
▁appropri	-3161
राब	-3162
संख्या	-3163
▁target	-3164
li	-3165
▁याता	-3166
▁Rupees	-3167
ञ्ज	-3168
▁dev	-3169
▁user	-3170
▁message	-3171
▁देखिन्छ	-3172
▁विश्वविद्यालय	-3173
▁gl	-3174
▁mo	-3175
▁छन	-3176
▁तथ	-3177
ying	-3178
▁hold	-3179
▁kind	-3180
▁accordance	-3181
▁brother	-3182
▁भे	-3183
▁Date	-3184
▁cannot	-3185
els	-3186
▁काठ	-3187
▁पर्व	-3188
▁inqu	-3189
▁rese	-3190
▁मिश्र	-3191
reement	-3192
▁परियोजना	-3193
▁management	-3194
iving	-3195
▁वातावरण	-3196
▁उपभोक्ता	-3197
▁inf	-3198
ibility	-3199
▁हाम्रो	-3200
▁Whether	-3201
rug	-3202
▁Ac	-3203
▁वटा	-3204
▁संघ	-3205
▁manner	-3206
▁कारणले	-3207
▁how	-3208
▁हुँदा	-3209
▁Member	-3210
▁मुद्रण	-3211
▁appoint	-3212
क्सा	-3213
ism	-3214
▁टा	-3215
▁depos	-3216
चय	-3217
वटा	-3218
ology	-3219
▁line	-3220
▁दस्तुर	-3221
▁food	-3222
,"	-3223
ton	-3224
वस्तु	-3225
▁Service	-3226
▁product	-3227
▁आइ	-3228
blem	-3229
▁बाब	-3230
unicip	-3231
▁मूल्याङ्कन	-3232
▁हुनेछन्	-3233
▁env	-3234
▁मोड	-3235
▁हुलाक	-3236
▁br	-3237
▁198	-3238
▁मध्ये	-3239
▁ज्ञ	-3240
▁आप	-3241
भूमि	-3242
▁tru	-3243
▁मृत्यु	-3244
▁स्वीकृत	-3245
▁पूर्ण	-3246
ुस	-3247
▁सर्भर	-3248
cri	-3249
▁ता	-3250
▁प्या	-3251
▁छौ	-3252
▁प्रतिष्ठ	-3253
▁Where	-3254
▁administ	-3255
▁डल	-3256
▁priest	-3257
she	-3258
wise	-3259
▁sou	-3260
▁Cannot	-3261
्ले	-3262
▁bel	-3263
▁spok	-3264
▁So	-3265
▁बेला	-3266
▁Jesus	-3267
कहाँ	-3268
▁fix	-3269
▁सेवाको	-3270
dom	-3271
▁Or	-3272
▁उत्तर	-3273
स्तर	-3274
▁योजनामा	-3275
vey	-3276
▁med	-3277
धिकरण	-3278
रिक्त	-3279
▁खोजी	-3280
▁साधन	-3281
▁सोही	-3282
▁fa	-3283
▁गि	-3284
भएको	-3285
▁Clause	-3286
▁regard	-3287
acity	-3288
▁Local	-3289
▁request	-3290
र्नु	-3291
edures	-3292
elating	-3293
साह	-3294
▁object	-3295
▁तोकेको	-3296
ाइरे	-3297
▁बलि	-3298
ocial	-3299
▁provisions	-3300
ँच	-3301
▁Add	-3302
▁पराम	-3303
▁वर्षमा	-3304
ट्टी	-3305
▁पाउ	-3306
▁मनो	-3307
▁दश	-3308
▁पास	-3309
ites	-3310
selves	-3311
▁उनीहरू	-3312
▁परीक्षण	-3313
▁10	-3314
िङ	-3315
ेसन	-3316
कहरू	-3317
▁अथ	-3318
▁हामीले	-3319
▁Cent	-3320
क्षि	-3321
नाम	-3322
्ति	-3323
▁bur	-3324
▁जरि	-3325
▁ची	-3326
resent	-3327
▁permission	-3328
oice	-3329
gt	-3330
योजनको	-3331
▁cases	-3332
▁check	-3333
▁आपूर्ति	-3334
▁पाइ	-3335
▁महा	-3336
▁हकमा	-3337
▁ed	-3338
▁force	-3339
-1	-3340
▁206	-3341
▁रुपैयाँ	-3342
ene	-3343
olution	-3344
ironment	-3345
▁अतिरिक्त	-3346
?"	-3347
▁अथवा	-3348
▁त्यही	-3349
▁मालसा	-3350
क्रिय	-3351
▁प्रसार	-3352
ेम	-3353
ल्क	-3354
िन	-3355
▁second	-3356
▁सामान्य	-3357
▁organization	-3358
▁above	-3359
▁एकजना	-3360
▁sal	-3361
▁Col	-3362
▁लाख	-3363
ian	-3364
ीहरूको	-3365
▁hundred	-3366
ीत	-3367
▁caus	-3368
▁मार्ग	-3369
▁बारेमा	-3370
▁additional	-3371
▁appropriate	-3372
▁At	-3373
ares	-3374
▁क्षमता	-3375
ely	-3376
ध्यम	-3377
▁Other	-3378
▁अक्षम	-3379
▁्	-3380
▁She	-3381
▁रोजग	-3382
uration	-3383
▁स्वर्ग	-3384
▁recommend	-3385
▁गराउनु	-3386
epar	-3387
▁पार्नुहोस्	-3388
fter	-3389
▁collect	-3390
▁डेटा	-3391
त्त	-3392
ज्	-3393
▁सुरक्षा	-3394
ोर	-3395
ल्यै	-3396
▁सिं	-3397
▁खारे	-3398
युक्ति	-3399
▁प्राथमिकता	-3400
▁Pre	-3401
▁item	-3402
ised	-3403
omin	-3404
▁सेना	-3405
र्नुहोस्	-3406
▁संस्थाले	-3407
▁distribution	-3408
न्दु	-3409
▁insp	-3410
▁नष्ट	-3411
▁ढाँचा	-3412
र्ट	-3413
▁शे	-3414
venth	-3415
▁manag	-3416
पानी	-3417
▁महिला	-3418
▁साधारण	-3419
▁नियुक्ति	-3420
▁तिनीहरूका	-3421
▁१३	-3422
राष्ट	-3423
▁सङ्ख्या	-3424
थ्यो	-3425
▁बनेको	-3426
▁दायित्व	-3427
ूब	-3428
▁भौ	-3429
▁prior	-3430
▁परेको	-3431
▁config	-3432
▁प्रकाशित	-3433
▁promotion	-3434
▁माध्यम	-3435
▁opp	-3436
▁दण्ड	-3437
▁copy	-3438
▁सम्पर्	-3439
▁possible	-3440
▁घो	-3441
▁ref	-3442
▁लाई	-3443
प्रयोग	-3444
▁प्रतिष्ठान	-3445
ूत	-3446
▁प्रयोजनको	-3447
ances	-3448
धिकारी	-3449
▁दिन्छ	-3450
man	-3451
▁Acc	-3452
▁life	-3453
▁Provision	-3454
▁१४	-3455
▁tour	-3456
▁point	-3457
▁उल्लिखित	-3458
ont	-3459
▁consid	-3460
aring	-3461
▁Show	-3462
▁आयात	-3463
▁निजले	-3464
▁स्थानमा	-3465
▁follows	-3466
▁खेल	-3467
▁मेल	-3468
▁राखी	-3469
▁mountain	-3470
tc	-3471
▁उपा	-3472
ender	-3473
▁दृष्टि	-3474
▁सामाजिक	-3475
▁Are	-3476
duc	-3477
क्का	-3478
▁चाँ	-3479
▁लोड	-3480
▁exceed	-3481
लाप	-3482
▁tre	-3483
▁last	-3484
▁अवस्थित	-3485
▁offering	-3486
▁technical	-3487
जुमा	-3488
▁wor	-3489
▁येशूले	-3490
‍य	-3491
छौ	-3492
idd	-3493
▁fall	-3494
▁terms	-3495
▁देशको	-3496
▁registered	-3497
▁करार	-3498
▁arrange	-3499
▁problem	-3500
तीमा	-3501
osition	-3502
rigation	-3503
▁विकासको	-3504
utive	-3505
omes	-3506
▁श्रे	-3507
▁whom	-3508
▁University	-3509
akes	-3510
▁util	-3511
ायत	-3512
▁खाने	-3513
▁Secretary	-3514
▁जस्ता	-3515
▁exper	-3516
अन्त	-3517
▁बाट	-3518
▁separ	-3519
ाइरेक्ट	-3520
ठा	-3521
ivid	-3522
semb	-3523
लम्ब	-3524
▁औद्योग	-3525
▁pra	-3526
▁Moses	-3527
aces	-3528
▁अन्त्य	-3529
▁payment	-3530
ues	-3531
▁jud	-3532
▁नव	-3533
▁didn	-3534
▁took	-3535
▁months	-3536
ौट	-3537
▁बस	-3538
enty	-3539
▁भनि	-3540
▁विज्ञ	-3541
▁expendit	-3542
▁तिमीहरूका	-3543
▁Em	-3544
म्बर	-3545
▁ध्व	-3546
▁along	-3547
▁share	-3548
▁happ	-3549
▁invol	-3550
▁निश्चित	-3551
वेद	-3552
▁disp	-3553
▁drin	-3554
▁transac	-3555
वक	-3556
▁etc	-3557
▁दुष्ट	-3558
▁appear	-3559
▁यन्त्र	-3560
▁respons	-3561
▁तर्जुमा	-3562
DE	-3563
▁साल	-3564
plain	-3565
▁तिमीहरूको	-3566
ML	-3567
देशिक	-3568
▁यातायात	-3569
▁पी	-3570
▁Tra	-3571
ैठारी	-3572
▁कानु	-3573
encement	-3574
▁जनसंख्या	-3575
reen	-3576
▁रेखा	-3577
▁बैङ्क	-3578
▁completed	-3579
----	-3580
usal	-3581
▁भवन	-3582
▁full	-3583
▁पुस्त	-3584
▁implementation	-3585
▁देखाउनुहोस्	-3586
here	-3587
▁जन्	-3588
▁लिनु	-3589
▁Judah	-3590
▁न्यून	-3591
▁नियुक्त	-3592
aim	-3593
▁New	-3594
▁शास	-3595
ering	-3596
▁paid	-3597
▁उहाँको	-3598
▁कर्मचारीको	-3599
50	-3600
▁Therefore	-3601
▁laws	-3602
▁Gazet	-3603
▁गएको	-3604
▁price	-3605
▁Unable	-3606
umb	-3607
▁hol	-3608
▁गरिन्छ	-3609
सको	-3610
▁नं	-3611
▁ans	-3612
▁cred	-3613
▁चिन्	-3614
▁12	-3615
oura	-3616
▁सेटिङ	-3617
▁साँच	-3618
▁जहाँ	-3619
▁लिने	-3620
▁Regist	-3621
▁इन्	-3622
▁सही	-3623
▁1.	-3624
▁पटक	-3625
▁duty	-3626
ode	-3627
▁words	-3628
▁महिना	-3629
ese	-3630
▁Body	-3631
▁वास्त	-3632
▁capacity	-3633
▁increased	-3634
▁Te	-3635
▁Dis	-3636
▁school	-3637
»»	-3638
काश	-3639
▁log	-3640
▁अरु	-3641
ident	-3642
stitute	-3643
osp	-3644
▁Cre	-3645
▁sim	-3646
▁tim	-3647
usalem	-3648
▁प्रवेश	-3649
▁लाग्ने	-3650
▁त्यस्ता	-3651
▁agreement	-3652
▁population	-3653
▁कर्मचारीले	-3654
ink	-3655
▁तर्फ	-3656
▁सडक	-3657
▁पैठारी	-3658
क्रमण	-3659
▁गाउँ	-3660
▁परामर्श	-3661
राष्ट्रिय	-3662
▁खास	-3663
▁सुद	-3664
asing	-3665
▁Comm	-3666
▁जाँचबुझ	-3667
▁Jerusalem	-3668
▁industries	-3669
▁डा	-3670
▁meas	-3671
tition	-3672
anch	-3673
▁Cont	-3674
▁जाने	-3675
▁Enter	-3676
▁दिइएको	-3677
▁हाम्रा	-3678
▁पृथ	-3679
▁सङ्केत	-3680
▁१८	-3681
र्गत	-3682
▁dri	-3683
▁स्थ	-3684
ience	-3685
▁play	-3686
▁study	-3687
▁supply	-3688
▁मितिले	-3689
▁environment	-3690
राम	-3691
▁चु	-3692
▁चीज	-3693
▁general	-3694
ाइरेक्टरी	-3695
cted	-3696
▁उत्पाद	-3697
▁निर्देशन	-3698
inal	-3699
▁दिनभित्र	-3700
क्षर	-3701
र्क	-3702
▁प्रव	-3703
ires	-3704
▁nam	-3705
▁जोड	-3706
▁पहा	-3707
्रीष्ट	-3708
▁sti	-3709
▁फिर्ता	-3710
▁research	-3711
▁औषधि	-3712
▁श्रम	-3713
aximum	-3714
umn	-3715
▁ठीक	-3716
▁भनेर	-3717
▁respect	-3718
elf	-3719
न्व	-3720
द्रा	-3721
▁air	-3722
uthor	-3723
रूद्ध	-3724
▁iden	-3725
▁matter	-3726
▁प्रतिनिधि	-3727
eth	-3728
ened	-3729
▁औद्योगिक	-3730
ञ्च	-3731
▁कम्तीमा	-3732
ured	-3733
▁मना	-3734
▁आज्ञा	-3735
हारी	-3736
arge	-3737
ified	-3738
▁किता	-3739
▁2.	-3740
ामीण	-3741
▁Egy	-3742
चालित	-3743
धिकार	-3744
▁वर्ण	-3745
▁These	-3746
▁ख्रीष्ट	-3747
▁प्रस्तु	-3748
▁तु	-3749
स्रो	-3750
▁Spec	-3751
▁trade	-3752
गमन	-3753
धित	-3754
▁written	-3755
▁मानिसहरूको	-3756
▁हक	-3757
▁असल	-3758
▁बाँकी	-3759
▁consum	-3760
अन्तर्गत	-3761
▁appointed	-3762
▁मत	-3763
▁गर्नुपर्ने	-3764
aul	-3765
▁save	-3766
urance	-3767
▁growth	-3768
दिन	-3769
▁ev	-3770
दानी	-3771
▁cour	-3772
▁result	-3773
▁return	-3774
▁प्रमाणित	-3775
▁रही	-3776
▁खोल्न	-3777
▁पुर्‍य	-3778
▁ग्रामीण	-3779
▁चढ	-3780
▁look	-3781
▁राख्ने	-3782
ल्ने	-3783
▁cal	-3784
▁व्यवस्थाप	-3785
हण	-3786
▁मूर्	-3787
▁मानिनेछ	-3788
▁सम्पर्क	-3789
▁materials	-3790
▁evaluation	-3791
▁circ	-3792
▁capital	-3793
रूप	-3794
ेरी	-3795
adem	-3796
्याग	-3797
▁पुनः	-3798
▁small	-3799
▁procurement	-3800
▁`	-3801
▁initi	-3802
▁पर्दा	-3803
▁भै	-3804
▁तत्	-3805
▁२०१	-3806
▁Five	-3807
▁देशमा	-3808
▁[	-3809
लोकन	-3810
▁Ass	-3811
▁Six	-3812
▁छैनन्	-3813
oh	-3814
▁अपना	-3815
▁occ	-3816
▁सीमा	-3817
▁industrial	-3818
▁11	-3819
▁social	-3820
▁building	-3821
नन्	-3822
▁fulf	-3823
▁el	-3824
sing	-3825
▁frame	-3826
▁Village	-3827
▁अगम	-3828
ट्टा	-3829
enses	-3830
ectives	-3831
▁सकिनेछ	-3832
?”	-3833
▁Q	-3834
लामा	-3835
▁कसै	-3836
्रष्ट	-3837
▁anim	-3838
▁Gazette	-3839
▁procedures	-3840
▁load	-3841
ension	-3842
▁access	-3843
▁१६	-3844
venue	-3845
cription	-3846
▁200	-3847
▁citiz	-3848
▁assistance	-3849
▁शी	-3850
▁After	-3851
▁ey	-3852
▁कति	-3853
▁रहने	-3854
▁पृथ्व	-3855
▁राजपत्रमा	-3856
स्ट	-3857
▁net	-3858
▁बैं	-3859
त्साह	-3860
▁leave	-3861
▁limit	-3862
tle	-3863
▁short	-3864
▁become	-3865
▁नवीकरण	-3866
स्व	-3867
▁old	-3868
▁क्य	-3869
ialog	-3870
▁vis	-3871
▁खेत	-3872
▁qual	-3873
▁sure	-3874
न्तरिक	-3875
▁women	-3876
▁including	-3877
ancell	-3878
▁सुरक्षित	-3879
sure	-3880
▁निकासी	-3881
सद	-3882
ros	-3883
▁किताब	-3884
▁existing	-3885
▁रहनेछ	-3886
▁effect	-3887
work	-3888
▁sell	-3889
omatic	-3890
▁विरूद्ध	-3891
रले	-3892
▁बज	-3893
unicipality	-3894
हाज	-3895
▁रहे	-3896
लियन	-3897
▁२०५	-3898
urned	-3899
▁otherwise	-3900
ug	-3901
सकेको	-3902
▁गराइ	-3903
▁हरेक	-3904
sembly	-3905
▁व्यहो	-3906
▁National	-3907
िएको	-3908
▁आफ्नै	-3909
▁framed	-3910
▁निर्या	-3911
▁search	-3912
▁जीव	-3913
▁विचार	-3914
▁दिइनेछ	-3915
▁तिनले	-3916
▁नहुने	-3917
▁?	-3918
iver	-3919
▁loss	-3920
▁around	-3921
▁आन्तरिक	-3922
▁maj	-3923
▁मालिक	-3924
▁ठाउँमा	-3925
▁सामग्री	-3926
यत	-3927
▁fif	-3928
▁सैनिक	-3929
aven	-3930
▁खाता	-3931
▁क्षति	-3932
▁button	-3933
▁custom	-3934
▁विद्यालय	-3935
▁उक्त	-3936
▁गराई	-3937
▁consult	-3938
▁कार्यमा	-3939
.,	-3940
▁धा	-3941
▁परिभा	-3942
▁ground	-3943
▁देहायको	-3944
▁प्रशासन	-3945
▁effective	-3946
▁छोरो	-3947
▁propos	-3948
डो	-3949
▁drug	-3950
▁immedi	-3951
▁working	-3952
▁Me	-3953
ersion	-3954
▁अनुप्रयोग	-3955
▁बु	-3956
त्री	-3957
▁सोध	-3958
वक्ता	-3959
▁fire	-3960
▁सन्द	-3961
▁destro	-3962
▁grant	-3963
▁समर्थन	-3964
▁परिषद्को	-3965
हास	-3966
्राह	-3967
▁जति	-3968
▁भार	-3969
▁farm	-3970
▁Trans	-3971
▁annual	-3972
▁डाइरेक्टरी	-3973
निम	-3974
▁taking	-3975
▁eat	-3976
▁छोड	-3977
▁साझ	-3978
▁छुट्ट	-3979
▁inquiry	-3980
▁ढाँचामा	-3981
▁पदाधिकारी	-3982
▁दिई	-3983
▁मालसामान	-3984
ाए	-3985
्रय	-3986
ञ्चल	-3987
▁event	-3988
▁course	-3989
.'	-3990
ask	-3991
▁अभिलेख	-3992
abled	-3993
▁सम्पन्न	-3994
▁नगरपालिका	-3995
रक	-3996
itle	-3997
▁held	-3998
▁chief	-3999
▁particip	-4000
य्	-4001
hem	-4002
▁Des	-4003
▁stat	-4004
▁very	-4005
▁exchange	-4006
angu	-4007
▁जवाफ	-4008
काल	-4009
▁Any	-4010
▁Rec	-4011
▁यहो	-4012
▁वरि	-4013
iting	-4014
▁operate	-4015
▁आए	-4016
▁acqu	-4017
▁valid	-4018
▁source	-4019
▁employment	-4020
▁पुरा	-4021
▁column	-4022
▁प्रभावकारी	-4023
▁#	-4024
▁neither	-4025
▁पुनरावेदन	-4026
sh	-4027
लाग	-4028
ched	-4029
irty	-4030
▁गुप	-4031
acher	-4032
▁bond	-4033
▁पर्वत	-4034
दैछ	-4035
▁most	-4036
▁लिएर	-4037
▁संवाद	-4038
▁प्रबन्ध	-4039
ृढ	-4040
▁hig	-4041
▁str	-4042
▁wid	-4043
ending	-4044
▁,	-4045
▁i	-4046
omp	-4047
▁15	-4048
▁bene	-4049
▁दुवै	-4050
▁toward	-4051
▁proceed	-4052
▁त्यसलाई	-4053
णि	-4054
वर्ड	-4055
ाएको	-4056
▁eng	-4057
porate	-4058
ricity	-4059
▁बनाउने	-4060
▁himself	-4061
▁महत्वपूर्ण	-4062
▁१७	-4063
▁Je	-4064
▁determined	-4065
▁अग	-4066
ieve	-4067
▁थाहा	-4068
▁family	-4069
▁accounts	-4070
लले	-4071
▁गर्दैन	-4072
▁योग्यता	-4073
▁Amendment	-4074
text	-4075
▁Some	-4076
▁युद्ध	-4077
▁dialog	-4078
▁कार्यको	-4079
by	-4080
gal	-4081
▁changes	-4082
दिए	-4083
▁लै	-4084
roll	-4085
▁deb	-4086
मू	-4087
ets	-4088
orts	-4089
▁renew	-4090
▁सुदृढ	-4091
▁निकायको	-4092
▁सञ्चालक	-4093
विध	-4094
▁sl	-4095
▁201	-4096
▁gold	-4097
▁charge	-4098
▁prepared	-4099
िल	-4100
ग्ने	-4101
▁दुइ	-4102
▁tell	-4103
▁दृश्य	-4104
कस	-4105
alf	-4106
त्मा	-4107
▁डलर	-4108
योग्य	-4109
▁evid	-4110
जर	-4111
▁छे	-4112
oney	-4113
▁Rem	-4114
▁Fore	-4115
▁Def	-4116
▁pack	-4117
▁Create	-4118
nel	-4119
▁arm	-4120
▁policies	-4121
▁कार्यकारी	-4122
▁By	-4123
भाव्य	-4124
▁With	-4125
▁motion	-4126
▁सक्रिय	-4127
▁पूजाहारी	-4128
▁implemented	-4129
sed	-4130
▁मन	-4131
▁बाप	-4132
▁फिल्ट	-4133
▁commencement	-4134
▁अन्तर्राष्ट्रिय	-4135
।’	-4136
raph	-4137
र्फत	-4138
▁Seventh	-4139
▁रोग	-4140
▁tool	-4141
▁साइज	-4142
ospital	-4143
hib	-4144
▁सोको	-4145
▁failed	-4146
▁नेपालको	-4147
तान	-4148
▁His	-4149
▁लेखाप	-4150
गति	-4151
प्ट	-4152
▁saw	-4153
▁war	-4154
▁स्तम्भ	-4155
▁निर्यात	-4156
ex	-4157
▁205	-4158
▁पर्यटन	-4159
iqu	-4160
भार	-4161
▁धनी	-4162
▁susp	-4163
▁products	-4164
▁प्रस्तुत	-4165
ipl	-4166
त्रा	-4167
▁(3)	-4168
▁Power	-4169
▁न्याया	-4170
▁पदमा	-4171
",	-4172
छा	-4173
The	-4174
teous	-4175
▁size	-4176
▁प्रेम	-4177
▁सिफारिस	-4178
▁)	-4179
▁पहु	-4180
▁गर्छन्	-4181
▁निजलाई	-4182
▁नियमित	-4183
▁providing	-4184
▁connection	-4185
▁sw	-4186
▁less	-4187
▁side	-4188
▁संचालन	-4189
outh	-4190
▁bre	-4191
▁yet	-4192
▁यसै	-4193
▁next	-4194
▁might	-4195
▁directory	-4196
▁international	-4197
ercial	-4198
▁वैदेशिक	-4199
▁agricultural	-4200
▁बह	-4201
▁KDE	-4202
ructure	-4203
द्दत	-4204
▁बटन	-4205
प्रति	-4206
▁Open	-4207
ership	-4208
▁दिनेछ	-4209
▁fee	-4210
▁गणना	-4211
▁देखा	-4212
▁शुरु	-4213
▁multi	-4214
▁सातौं	-4215
▁z	-4216
ify	-4217
line	-4218
▁How	-4219
▁sum	-4220
पण	-4221
हरी	-4222
र्जन	-4223
▁move	-4224
▁maximum	-4225
▁मानिसको	-4226
▁नम्बर	-4227
ृह	-4228
वलोकन	-4229
gether	-4230
▁heard	-4231
▁पासवर्ड	-4232
▁punishment	-4233
▁गर्नुहुन्छ	-4234
▁dau	-4235
▁उजु	-4236
▁गति	-4237
▁remove	-4238
▁प्रकारको	-4239
न्या	-4240
▁test	-4241
▁निष्	-4242
▁अनुरोध	-4243
▁निरीक्षण	-4244
rep	-4245
irit	-4246
ीकृत	-4247
▁प्लग	-4248
ept	-4249
बलि	-4250
ilar	-4251
न्छु	-4252
▁खारेज	-4253
▁मान्य	-4254
▁२०२	-4255
▁(2),	-4256
▁Save	-4257
▁स्वी	-4258
▁हटाउन	-4259
▁investi	-4260
▁प्रार्थ	-4261
▁भन्नुहुन्छ	-4262
।।	-4263
ked	-4264
▁Sy	-4265
िकित्	-4266
▁six	-4267
▁पहुँच	-4268
ghteous	-4269
ott	-4270
▁समन्व	-4271
for	-4272
पित	-4273
▁3.	-4274
▁वी	-4275
ential	-4276
▁seven	-4277
▁कोषको	-4278
ecutive	-4279
▁forest	-4280
▁बिन्दु	-4281
▁destroy	-4282
eds	-4283
▁थु	-4284
▁कैद	-4285
हरूबाट	-4286
▁Administ	-4287
ME	-4288
श्रम	-4289
▁immediately	-4290
▁204	-4291
▁ज्या	-4292
ysical	-4293
▁entity	-4294
▁survey	-4295
▁जनशक्ति	-4296
कर	-4297
▁mail	-4298
▁कानू	-4299
▁Inter	-4300
ior	-4301
▁together	-4302
▁प्राधिकरण	-4303
मको	-4304
धारा	-4305
▁झैं	-4306
▁इन्ट	-4307
▁बराब	-4308
▁सङ्क	-4309
▁exceeding	-4310
ष्य	-4311
▁UR	-4312
▁sup	-4313
▁evil	-4314
▁कहाँ	-4315
▁मद्दत	-4316
▁प्याके	-4317
▁themselves	-4318
top	-4319
▁छल	-4320
oose	-4321
ाउँछ	-4322
▁Det	-4323
▁adop	-4324
▁कामको	-4325
▁organiz	-4326
▁Thousand	-4327
▁establish	-4328
▁estimated	-4329
ives	-4330
▁२०३	-4331
▁उचित	-4332
▁मुद्रा	-4333
▁industry	-4334
▁recommendation	-4335
लन	-4336
▁देव	-4337
▁clear	-4338
▁शुल्क	-4339
▁Egypt	-4340
वृ	-4341
lec	-4342
▁यसो	-4343
▁सुन	-4344
▁हस्तान्तरण	-4345
ङ्गा	-4346
board	-4347
▁speak	-4348
▁demand	-4349
▁permit	-4350
ides	-4351
gress	-4352
वेक्षण	-4353
▁owner	-4354
▁सक्दैन	-4355
१०	-4356
urb	-4357
▁अफ	-4358
▁conducted	-4359
्युट	-4360
▁घटना	-4361
▁Failed	-4362
▁institutions	-4363
र्भ	-4364
हान	-4365
ortun	-4366
जिष्ट	-4367
▁प्रगति	-4368
षित	-4369
▁corre	-4370
▁लिखित	-4371
▁बैठकको	-4372
रहे	-4373
▁चो	-4374
▁पै	-4375
▁wat	-4376
inary	-4377
▁stock	-4378
▁अगाडि	-4379
▁चिकित्	-4380
ervation	-4381
▁License	-4382
▁complain	-4383
▁password	-4384
▁irrigation	-4385
▁कर्मचारीलाई	-4386
▁(4	-4387
▁rural	-4388
▁पुर्य	-4389
इएको	-4390
▁ट्र	-4391
▁stren	-4392
▁prepare	-4393
▁प्रोत्साह	-4394
याक	-4395
▁टि	-4396
▁firm	-4397
▁सर्भ	-4398
ground	-4399
तन्त्र	-4400
▁based	-4401
▁खाद्य	-4402
▁represent	-4403
ift	-4404
▁ढु	-4405
▁वे	-4406
feren	-4407
▁अत्य	-4408
▁अनुगमन	-4409
▁मानिसलाई	-4410
जित	-4411
पताल	-4412
स्करण	-4413
▁राख्	-4414
▁यि	-4415
विधान	-4416
▁कसूर	-4417
▁comput	-4418
▁बैठकमा	-4419
▁अगमवक्ता	-4420
▁performance	-4421
▁२५	-4422
न्ने	-4423
▁Pol	-4424
▁तालिका	-4425
ills	-4426
्याव	-4427
▁bid	-4428
▁छैठ	-4429
▁आउने	-4430
▁बस्ने	-4431
▁Cer	-4432
ek	-4433
▁०	-4434
माड	-4435
▁आँ	-4436
ders	-4437
▁पत्	-4438
स्त्र	-4439
क्षेत्र	-4440
enc	-4441
ायाँ	-4442
vious	-4443
▁फर्का	-4444
▁produc	-4445
▁परिमाण	-4446
▁transfer	-4447
▁direction	-4448
थो	-4449
▁पठाउनु	-4450
▁published	-4451
▁नजिक	-4452
▁ब्या	-4453
▁particular	-4454
▁अधी	-4455
णिज्य	-4456
▁places	-4457
▁official	-4458
▁statement	-4459
ety	-4460
hab	-4461
▁पश्	-4462
▁टाढा	-4463
itation	-4464
टप	-4465
हरुबाट	-4466
▁गर्यो	-4467
▁लागेको	-4468
▁सकिन्छ	-4469
▁objectives	-4470
▁examination	-4471
▁सध	-4472
▁Land	-4473
▁चाहि	-4474
AR	-4475
हे	-4476
▁x	-4477
▁associ	-4478
▁position	-4479
निज	-4480
▁चे	-4481
▁Exp	-4482
▁लाइ	-4483
▁पञ्च	-4484
▁सङ्ग	-4485
▁साना	-4486
▁nomin	-4487
lim	-4488
▁फल	-4489
▁ach	-4490
क्षिक	-4491
▁Kath	-4492
▁खुला	-4493
hentic	-4494
▁death	-4495
▁except	-4496
Wh	-4497
सके	-4498
andu	-4499
ging	-4500
नेछौ	-4501
र्षक	-4502
gr	-4503
▁We	-4504
▁टु	-4505
ways	-4506
▁abs	-4507
▁ब्र	-4508
▁छलफल	-4509
▁वर्षसम्म	-4510
▁व्यवसायी	-4511
▁beh	-4512
▁fact	-4513
▁मुलु	-4514
▁regular	-4515
▁आई	-4516
पन्न	-4517
▁lit	-4518
▁चिन्ह	-4519
▁ध्यान	-4520
▁गर्नुभयो	-4521
▁मिला	-4522
▁entit	-4523
▁फिल्टर	-4524
▁अस्पताल	-4525
▁try	-4526
▁हास	-4527
mandu	-4528
▁दाखि	-4529
▁आत्मा	-4530
▁वरिपरि	-4531
rene	-4532
ently	-4533
ression	-4534
▁रजिष्ट	-4535
▁righteous	-4536
▁la	-4537
ugin	-4538
▁एका	-4539
▁प्रार्थना	-4540
▁प्रमाणीकरण	-4541
भूत	-4542
मूल	-4543
rodu	-4544
▁कार्यालयमा	-4545
णा	-4546
day	-4547
▁द्व	-4548
▁manager	-4549
rit	-4550
▁Aut	-4551
▁सरह	-4552
दिनु	-4553
▁प्रसारण	-4554
ific	-4555
urred	-4556
बल	-4557
ict	-4558
फाइल	-4559
▁improve	-4560
▁Municipality	-4561
AP	-4562
▁14	-4563
ached	-4564
▁mode	-4565
▁spoke	-4566
▁author	-4567
▁encoura	-4568
▁included	-4569
▁18	-4570
▁priority	-4571
▁expenditure	-4572
ipt	-4573
▁Mr	-4574
पर्दछ	-4575
▁page	-4576
▁offence	-4577
ँजी	-4578
क्न	-4579
▁सिल	-4580
▁दिनुहोस्	-4581
र्घ	-4582
teen	-4583
▁लैजा	-4584
▁langu	-4585
▁messages	-4586
▁स्वचालित	-4587
▁अवै	-4588
ample	-4589
odies	-4590
▁prac	-4591
▁भन्सार	-4592
▁13	-4593
rist	-4594
माडौं	-4595
▁fees	-4596
▁आठ	-4597
▁exc	-4598
▁अमेर	-4599
▁सामु	-4600
▁तुल्या	-4601
▁बाँच	-4602
व्	-4603
aled	-4604
▁मर्म	-4605
▁जरिवा	-4606
▁servant	-4607
▁commercial	-4608
Ch	-4609
pr	-4610
चाइ	-4611
▁During	-4612
▁*	-4613
▁सन्त	-4614
reneur	-4615
ensation	-4616
्रेम	-4617
▁Educ	-4618
▁बढुवा	-4619
▁setting	-4620
लाम	-4621
pted	-4622
▁mob	-4623
▁सञ्चार	-4624
▁receive	-4625
repreneur	-4626
▁तपाईँलाई	-4627
र्स	-4628
▁बैड्ढ	-4629
▁Academ	-4630
▁publish	-4631
▁opportun	-4632
bit	-4633
▁Ed	-4634
▁dam	-4635
अनुसार	-4636
▁ज्ञान	-4637
▁सकिएन	-4638
▁संगठित	-4639
▁require	-4640
▁increasing	-4641
▁Sign	-4642
▁हिसा	-4643
▁higher	-4644
▁प्याकेज	-4645
▁संस्करण	-4646
▁शाऊ	-4647
▁near	-4648
▁अधीनमा	-4649
▁nations	-4650
▁expenses	-4651
▁अङ्क	-4652
▁direct	-4653
▁प्लगइन	-4654
▁quality	-4655
▁स्वीकार	-4656
▁situation	-4657
▁आउँ	-4658
▁मर्मत	-4659
्यावधिक	-4660
जो	-4661
लत	-4662
ogn	-4663
▁लाभ	-4664
▁File	-4665
▁सहभाग	-4666
▁अनुकूल	-4667
▁संयुक्त	-4668
-2	-4669
ead	-4670
▁आमा	-4671
▁Kathmandu	-4672
▁technology	-4673
▁यसका	-4674
मन्त्र	-4675
▁जान्द	-4676
▁selection	-4677
▁mid	-4678
▁जहाज	-4679
▁रद्द	-4680
▁अन्तर	-4681
▁स्वाम	-4682
▁Fin	-4683
▁फन्ट	-4684
▁हुन्छन्	-4685
▁केन्द्रीय	-4686
▁प्रविष्टि	-4687
लेको	-4688
▁आवास	-4689
▁समन्वय	-4690
ktop	-4691
▁परिण	-4692
▁coord	-4693
▁equip	-4694
▁वर्णन	-4695
▁खानेपानी	-4696
▁Fif	-4697
▁Two	-4698
▁असर	-4699
▁eyes	-4700
▁सानो	-4701
▁प्राप	-4702
▁हासिल	-4703
▁Christ	-4704
▁relation	-4705
▁agriculture	-4706
बै	-4707
▁Rast	-4708
▁कामदार	-4709
▁भएकोले	-4710
ara	-4711
ley	-4712
tified	-4713
▁किसिमको	-4714
जाल	-4715
rust	-4716
रुपमा	-4717
▁मेनु	-4718
▁context	-4719
▁यहूदाका	-4720
▁वाणिज्य	-4721
▁शैक्षिक	-4722
डे	-4723
११	-4724
ोका	-4725
▁बद	-4726
▁gave	-4727
▁बोला	-4728
ng	-4729
▁आगो	-4730
▁छनौट	-4731
▁फर्म	-4732
▁applicant	-4733
▁पच	-4734
▁unc	-4735
▁साँ	-4736
▁खनिज	-4737
▁शेयर	-4738
▁गर्दैछ	-4739
▁शिक्षक	-4740
▁निर्धारित	-4741
ik	-4742
ov	-4743
फो	-4744
▁ई	-4745
▁camp	-4746
▁trib	-4747
▁credit	-4748
▁काठमाडौं	-4749
ाइन	-4750
लम्बन	-4751
▁परेमा	-4752
▁fathers	-4753
कार्य	-4754
▁मन्दिर	-4755
लोड	-4756
▁bud	-4757
▁बापत	-4758
▁भाषा	-4759
▁संस्थान	-4760
struction	-4761
▁विप	-4762
▁सारा	-4763
▁entitled	-4764
▁chairperson	-4765
▁उपस्थित	-4766
▁राखिएको	-4767
▁संविधान	-4768
▁बमोजिमका	-4769
▁corporate	-4770
/9	-4771
▁16	-4772
▁लगाउन	-4773
▁approved	-4774
aster	-4775
▁whose	-4776
▁behold	-4777
▁records	-4778
▁नेपालमा	-4779
▁world	-4780
▁Employ	-4781
▁amounts	-4782
▁certain	-4783
▁receipt	-4784
▁त्यस्तै	-4785
▁maintained	-4786
ठी	-4787
ends	-4788
▁ang	-4789
iscal	-4790
ortion	-4791
ancy	-4792
▁अवैध	-4793
▁exerc	-4794
▁आधारित	-4795
gth	-4796
चान	-4797
▁अझै	-4798
▁क्व	-4799
ात्मक	-4800
▁able	-4801
▁लामो	-4802
▁शाखा	-4803
▁जरिवाना	-4804
▁सदस्यले	-4805
ane	-4806
tis	-4807
▁top	-4808
▁ver	-4809
▁भएर	-4810
▁Your	-4811
▁फोटो	-4812
▁entry	-4813
▁अगुवा	-4814
▁mother	-4815
▁educational	-4816
▁नरा	-4817
▁वचन	-4818
▁कोही	-4819
▁डाटा	-4820
▁अनुभव	-4821
▁तिनका	-4822
▁पुस्तक	-4823
▁register	-4824
▁छैठौं	-4825
▁undert	-4826
iol	-4827
▁कुराको	-4828
aper	-4829
▁तिर	-4830
▁Comp	-4831
▁काममा	-4832
▁उदा	-4833
▁वेद	-4834
▁यसमा	-4835
▁सत्य	-4836
asting	-4837
सम्मको	-4838
▁विभागले	-4839
▁Thus	-4840
▁कसरी	-4841
▁लागत	-4842
overed	-4843
टमा	-4844
▁थिएन	-4845
▁सुने	-4846
▁दिइने	-4847
▁स्वामित्व	-4848
▁Co	-4849
hing	-4850
▁Proc	-4851
▁much	-4852
▁still	-4853
नुहुनेछ	-4854
ross	-4855
▁Arm	-4856
▁सफल	-4857
ghter	-4858
▁देखे	-4859
सक्	-4860
▁Let	-4861
▁शरी	-4862
क्सानी	-4863
▁प्रहरी	-4864
▁separate	-4865
▁............	-4866
राई	-4867
▁cut	-4868
▁King	-4869
▁decl	-4870
▁rule	-4871
▁brothers	-4872
▁अद्यावधिक	-4873
apan	-4874
▁दूर	-4875
▁path	-4876
▁धर्म	-4877
▁third	-4878
▁circum	-4879
▁tender	-4880
▁evidence	-4881
स्कटप	-4882
▁अधिकतम	-4883
▁चलचित्र	-4884
side	-4885
न्नु	-4886
बन्द	-4887
▁acts	-4888
▁voice	-4889
▁happened	-4890
▁operated	-4891
▁परमेश्वरलाई	-4892
▁wal	-4893
▁दाऊदले	-4894
▁दोस्रो	-4895
▁भएकोमा	-4896
▁Executive	-4897
▁३०	-4898
तामा	-4899
arant	-4900
▁claim	-4901
▁व्याव	-4902
Relating	-4903
▁version	-4904
▁व्यवहार	-4905
सूच	-4906
▁loan	-4907
▁past	-4908
▁remo	-4909
▁कानुन	-4910
▁दायाँ	-4911
ins	-4912
▁आफूले	-4913
▁Function	-4914
▁previous	-4915
▁तथ्याङ्क	-4916
▁सरकारबाट	-4917
टको	-4918
▁Dele	-4919
▁गर्छु	-4920
▁विनिम	-4921
▁सुरुआ	-4922
vers	-4923
▁users	-4924
▁review	-4925
▁organizations	-4926
▁<	-4927
ण्डार	-4928
▁Four	-4929
▁Rastra	-4930
▁formul	-4931
ंसा	-4932
eter	-4933
▁hum	-4934
▁wife	-4935
▁light	-4936
▁money	-4937
▁sound	-4938
▁नगर्ने	-4939
▁नोक्सानी	-4940
ल्न	-4941
▁भर	-4942
▁tab	-4943
▁enem	-4944
▁सुले	-4945
हिल्यै	-4946
▁indic	-4947
▁purch	-4948
▁itself	-4949
▁servants	-4950
▁क्षतिपूर्ति	-4951
▁भेडा	-4952
▁पाएको	-4953
▁भौतिक	-4954
▁created	-4955
▁Education	-4956
▁nominated	-4957
nal	-4958
▁टो	-4959
ones	-4960
▁Form	-4961
▁cities	-4962
▁गुणस्तर	-4963
▁गर्नेछन्	-4964
▁countries	-4965
बाल	-4966
▁ce	-4967
▁ढा	-4968
utes	-4969
वाही	-4970
▁हवाई	-4971
▁since	-4972
▁साझेद	-4973
▁हेर्न	-4974
▁पृष्ठभूमि	-4975
oot	-4976
aged	-4977
irst	-4978
काली	-4979
▁नदी	-4980
ticle	-4981
▁खुशी	-4982
▁बनाए	-4983
▁monitor	-4984
▁Nepalese	-4985
▁physical	-4986
fig	-4987
कूब	-4988
निय	-4989
▁आपू	-4990
▁माउ	-4991
▁Click	-4992
▁below	-4993
▁कर्जा	-4994
▁हिसाब	-4995
▁राष्टि	-4996
▁securities	-4997
ien	-4998
वाज	-4999
▁tr	-5000
▁emp	-5001
▁Check	-5002
▁Program	-5003
कुल	-5004
▁छेउ	-5005
▁electricity	-5006
ल्ड	-5007
ग्रह	-5008
rator	-5009
▁meth	-5010
▁पर्न	-5011
▁holy	-5012
▁medi	-5013
▁mobil	-5014
▁किनारा	-5015
ancellor	-5016
▁डेस्कटप	-5017
▁मध्यस्थ	-5018
▁विस्तृत	-5019
▁Provisions	-5020
tim	-5021
▁Ne	-5022
▁Sim	-5023
▁hous	-5024
▁विभा	-5025
▁सम्भव	-5026
▁prophe	-5027
▁स्क्रि	-5028
1)	-5029
vi	-5030
हरण	-5031
म्मे	-5032
ेस्रो	-5033
▁लाइन	-5034
▁विधि	-5035
atural	-5036
▁फ्रेम	-5037
▁teacher	-5038
▁carrying	-5039
▁reasonable	-5040
▁कन्फिगरेसन	-5041
▁फै	-5042
▁times	-5043
▁राष्टि्रय	-5044
▁appointment	-5045
hu	-5046
अनु	-5047
▁Inc	-5048
▁low	-5049
▁mar	-5050
▁hear	-5051
▁याकूब	-5052
▁लिएको	-5053
▁charact	-5054
▁districts	-5055
▁\	-5056
▁soul	-5057
▁ट्रे	-5058
▁विगत	-5059
▁fixed	-5060
ुर	-5061
▁२०७	-5062
tical	-5063
ेक्षा	-5064
▁giving	-5065
▁पछिल्लो	-5066
gg	-5067
▁२१	-5068
▁title	-5069
▁मनासि	-5070
▁method	-5071
▁छि	-5072
▁mach	-5073
▁चेला	-5074
पात	-5075
▁मै	-5076
▁दाख	-5077
▁जानु	-5078
▁twenty	-5079
▁आयोगको	-5080
▁installed	-5081
▁यस्ता	-5082
▁तिम्रा	-5083
ull	-5084
▁जु	-5085
ज्यू	-5086
abase	-5087
ograph	-5088
▁rupees	-5089
arl	-5090
▁Fil	-5091
ledge	-5092
▁face	-5093
▁redu	-5094
▁configuration	-5095
rar	-5096
▁bal	-5097
▁treat	-5098
▁bodies	-5099
▁बनाउनु	-5100
▁भण्डार	-5101
▁विद्या	-5102
▁उत्पन्न	-5103
▁देखिएमा	-5104
▁विज्ञान	-5105
▁Assembly	-5106
▁कार्यालयको	-5107
wer	-5108
परम	-5109
शील	-5110
well	-5111
▁जन्म	-5112
rative	-5113
स्थायी	-5114
▁table	-5115
▁discus	-5116
▁न्यूनतम	-5117
▁खान	-5118
▁पुगेको	-5119
▁परीक्षा	-5120
▁Administration	-5121
wered	-5122
▁formed	-5123
▁अध्यक्षले	-5124
▁Go	-5125
▁लुगा	-5126
एस	-5127
▁भो	-5128
▁laun	-5129
▁जिम्मे	-5130
▁lead	-5131
▁sale	-5132
▁सम्भाव	-5133
▁स्ट्रि	-5134
▁कहिल्यै	-5135
▁answered	-5136
rie	-5137
डाइ	-5138
▁gre	-5139
वस्था	-5140
▁orig	-5141
▁पचास	-5142
Section	-5143
▁द्रष्ट	-5144
▁मार्फत	-5145
▁ल्याउन	-5146
▁विनिमय	-5147
▁समाधान	-5148
▁Management	-5149
DM	-5150
▁दी	-5151
▁हार	-5152
▁विमान	-5153
▁letter	-5154
▁values	-5155
▁individ	-5156
▁रोजगारी	-5157
▁proposal	-5158
1.	-5159
कृ	-5160
ilt	-5161
mark	-5162
▁इच्छ	-5163
▁बायाँ	-5164
▁संसार	-5165
▁दिनुभयो	-5166
दूत	-5167
पुर	-5168
रीय	-5169
▁san	-5170
▁हित	-5171
▁नाममा	-5172
▁settings	-5173
▁transaction	-5174
कोे	-5175
साधारण	-5176
▁blood	-5177
▁पूँजी	-5178
▁Behold	-5179
▁fiscal	-5180
▁Project	-5181
▁Special	-5182
▁network	-5183
▁workers	-5184
▁equipment	-5185
ery	-5186
▁Ob	-5187
▁es	-5188
्रमण	-5189
▁bread	-5190
▁whole	-5191
▁कम्प्युट	-5192
▁profession	-5193
कोण	-5194
▁My	-5195
▁बग	-5196
ored	-5197
▁जमी	-5198
icked	-5199
older	-5200
▁turn	-5201
▁ऐनमा	-5202
ern	-5203
gra	-5204
ude	-5205
▁सृ	-5206
▁नाप	-5207
▁साध	-5208
▁आकाश	-5209
▁क्रि	-5210
▁exped	-5211
▁उजुरी	-5212
▁समुद्र	-5213
uneration	-5214
be	-5215
▁0	-5216
ेशन	-5217
▁alt	-5218
▁viol	-5219
▁तत्व	-5220
▁Sixth	-5221
▁peace	-5222
▁उपचार	-5223
▁Number	-5224
▁expected	-5225
▁important	-5226
aws	-5227
रिएको	-5228
▁dead	-5229
▁प्ले	-5230
▁write	-5231
▁heaven	-5232
▁compensation	-5233
▁entrepreneur	-5234
▁उभि	-5235
▁Signature	-5236
पे	-5237
▁far	-5238
▁परा	-5239
ually	-5240
मेल	-5241
▁ठा	-5242
▁अंश	-5243
▁निस्	-5244
▁hands	-5245
▁रूपले	-5246
▁Health	-5247
▁स्थायी	-5248
▁revenue	-5249
den	-5250
mon	-5251
alid	-5252
ects	-5253
तिका	-5254
▁बनाइ	-5255
▁Amount	-5256
▁recogn	-5257
fficient	-5258
▁contact	-5259
▁contrib	-5260
▁प्रतिमा	-5261
▁concerning	-5262
▁4.	-5263
▁सय	-5264
▁यसैले	-5265
▁प्रधान	-5266
▁आज	-5267
▁सभ	-5268
कृतिक	-5269
पर्नेछ	-5270
▁makes	-5271
▁गयो	-5272
inate	-5273
▁step	-5274
▁ट्या	-5275
▁benef	-5276
▁सन्तान	-5277
▁ha	-5278
▁पे	-5279
▁sol	-5280
▁free	-5281
▁उमेर	-5282
श्रमिक	-5283
स्कृति	-5284
▁शहरमा	-5285
▁Indust	-5286
stituted	-5287
▁अस्थायी	-5288
▁commanded	-5289
▁completion	-5290
टै	-5291
पनि	-5292
हित	-5293
▁वृ	-5294
म्बा	-5295
▁adj	-5296
▁sil	-5297
▁woman	-5298
▁निवेद	-5299
▁तेस्रो	-5300
▁व्यक्तिगत	-5301
per	-5302
▁bar	-5303
▁plant	-5304
▁प्रशि	-5305
▁अत्यन्त	-5306
▁developed	-5307
▁तोकिएबमोजिम	-5308
साथ	-5309
▁उनको	-5310
▁opened	-5311
▁सञ्जाल	-5312
▁सुलेमान	-5313
You	-5314
राध	-5315
▁घु	-5316
▁डो	-5317
▁live	-5318
▁बाबु	-5319
▁परिषद	-5320
▁हुँदै	-5321
▁जग्गाको	-5322
▁परिचालन	-5323
▁फाइलहरू	-5324
▁complaint	-5325
▁hy	-5326
च्चा	-5327
लाको	-5328
ल्लाह	-5329
▁Copy	-5330
▁plans	-5331
▁परिमा	-5332
▁छोराहरू	-5333
▁नब	-5334
▁faith	-5335
▁correct	-5336
▁सम्भाव्य	-5337
▁प्रतिशतले	-5338
▁कार्यक्रमहरु	-5339
use	-5340
यान	-5341
▁Up	-5342
▁dig	-5343
▁typ	-5344
▁भवि	-5345
igned	-5346
रुद्ध	-5347
1,	-5348
▁बजेट	-5349
▁Applic	-5350
▁त्यसले	-5351
▁गर्नुपर्छ	-5352
▁अपा	-5353
▁फार	-5354
▁bord	-5355
urther	-5356
▁प्रभु	-5357
▁Enable	-5358
▁रजिष्ट्र	-5359
▁क्षेत्रीय	-5360
▁कार्यक्रमको	-5361
ape	-5362
ats	-5363
oor	-5364
ided	-5365
rast	-5366
▁Area	-5367
▁फाइलमा	-5368
▁राजाले	-5369
▁allowed	-5370
▁प्रत्या	-5371
▁कार्यालयले	-5372
▁पारिश्रमिक	-5373
दम	-5374
the	-5375
▁god	-5376
▁lack	-5377
▁आएका	-5378
▁पत्नी	-5379
tenance	-5380
▁पहिचान	-5381
ists	-5382
▁Bir	-5383
▁(1).	-5384
▁quan	-5385
▁plugin	-5386
▁internal	-5387
▁location	-5388
तिको	-5389
▁mis	-5390
▁मर्	-5391
".	-5392
▁age	-5393
▁HT	-5394
न्सि	-5395
▁URL	-5396
▁भोज	-5397
Member	-5398
▁Academy	-5399
▁involved	-5400
▁progress	-5401
2.	-5402
3.	-5403
घा	-5404
बेस	-5405
▁ठहर	-5406
▁roads	-5407
▁लगाउने	-5408
▁natural	-5409
▁sectors	-5410
▁प्रारम्भिक	-5411
▁झू	-5412
tire	-5413
▁कूल	-5414
▁टेलि	-5415
▁सकेको	-5416
6)	-5417
▁>	-5418
ंदा	-5419
इन्	-5420
pped	-5421
▁विध	-5422
imary	-5423
▁सेयर	-5424
▁active	-5425
▁labour	-5426
▁superv	-5427
▁भिडियो	-5428
▁individual	-5429
/8	-5430
▁लाग्	-5431
▁filed	-5432
▁25	-5433
▁एजे	-5434
▁कर्	-5435
iding	-5436
ध्यक्ष	-5437
▁कल्या	-5438
▁उहाँलाई	-5439
▁गर्नेछु	-5440
▁problems	-5441
bar	-5442
▁छौं	-5443
▁else	-5444
▁घरमा	-5445
▁सहायक	-5446
▁कल्याण	-5447
▁निर्वा	-5448
▁Address	-5449
▁outside	-5450
▁facility	-5451
▁वास्तविक	-5452
▁प्राकृतिक	-5453
ope	-5454
▁आउ	-5455
▁२२	-5456
rary	-5457
ध्या	-5458
▁फरक	-5459
तिहास	-5460
वीकार	-5461
▁dwell	-5462
▁thing	-5463
▁प्रथम	-5464
▁मन्त्रालयले	-5465
▁Constitution	-5466
▁job	-5467
▁बारे	-5468
▁विविध	-5469
omestic	-5470
▁output	-5471
▁पर्याप्त	-5472
दय	-5473
वर	-5474
raw	-5475
यदि	-5476
eting	-5477
▁शान्	-5478
▁Japan	-5479
▁wicked	-5480
▁community	-5481
▁description	-5482
!"	-5483
▁17	-5484
ateg	-5485
ुट्ट	-5486
▁ह्या	-5487
▁क्यारे	-5488
▁department	-5489
▁ic	-5490
▁Don	-5491
▁Per	-5492
▁inde	-5493
▁किलो	-5494
▁मार्	-5495
▁आधारभूत	-5496
▁requires	-5497
कट	-5498
शः	-5499
▁अभ	-5500
्राम	-5501
▁menu	-5502
▁party	-5503
mittees	-5504
▁impris	-5505
▁भविष्य	-5506
▁includes	-5507
▁designated	-5508
▁२३	-5509
▁Aud	-5510
▁pat	-5511
▁खडा	-5512
▁succ	-5513
encies	-5514
▁sword	-5515
▁accept	-5516
omatically	-5517
▁committed	-5518
आब	-5519
▁aid	-5520
▁Post	-5521
▁anal	-5522
▁आठौं	-5523
▁पढ्न	-5524
▁broad	-5525
▁shown	-5526
▁images	-5527
▁मिलियन	-5528
▁प्रकृति	-5529
▁........	-5530
▁Dec	-5531
▁तलब	-5532
▁चेता	-5533
▁Three	-5534
▁छुट्टै	-5535
▁Functions	-5536
▁participation	-5537
▁डर	-5538
कालीन	-5539
▁marks	-5540
▁दिनको	-5541
क्षिप्त	-5542
▁obtaining	-5543
esty	-5544
tify	-5545
▁budget	-5546
▁पाउनेछ	-5547
▁deposit	-5548
▁व्यहोरा	-5549
▁circumst	-5550
▁drinking	-5551
▁विशेषज्ञ	-5552
com	-5553
▁२४	-5554
tisf	-5555
▁पङ्	-5556
elfare	-5557
पूर्वक	-5558
▁caused	-5559
▁satisf	-5560
▁travel	-5561
▁सदस्यको	-5562
▁व्यावसाय	-5563
िकी	-5564
ling	-5565
▁काँ	-5566
inion	-5567
▁महसु	-5568
▁young	-5569
▁सल्लाह	-5570
▁Account	-5571
▁पूजाहार	-5572
▁अधिकृतले	-5573
▁protection	-5574
▁vac	-5575
▁बखत	-5576
atory	-5577
▁आएमा	-5578
▁अस्वीकार	-5579
▁हस्ताक्षर	-5580
▁लेखापरीक्षण	-5581
,–	-5582
▁रिस	-5583
right	-5584
तालाई	-5585
▁जसलाई	-5586
▁ट्याब	-5587
▁reform	-5588
▁introdu	-5589
▁knowledge	-5590
िच	-5591
श्श	-5592
न्सी	-5593
▁box	-5594
▁sing	-5595
▁sold	-5596
▁बाधा	-5597
▁लुका	-5598
▁सन्दर्भ	-5599
▁संस्थानको	-5600
▁आफै	-5601
▁बढाउन	-5602
▁पार्ने	-5603
tt	-5604
सिक	-5605
क्षे	-5606
▁draw	-5607
▁क्रो	-5608
▁large	-5609
▁आयोगले	-5610
▁instead	-5611
▁अन्यत्र	-5612
▁भइरहेको	-5613
▁हुनुपर्छ	-5614
▁दृष्टिकोण	-5615
▁रुपैयाँसम्म	-5616
▁नप	-5617
▁Ser	-5618
▁mor	-5619
समिति	-5620
▁real	-5621
▁पन्ध	-5622
▁बीचमा	-5623
▁rights	-5624
▁अदालतले	-5625
▁resource	-5626
▁गरिरहेका	-5627
▁संक्षिप्त	-5628
▁जग	-5629
▁गृह	-5630
▁ship	-5631
ention	-5632
iament	-5633
▁mouth	-5634
▁भत्ता	-5635
▁शीर्षक	-5636
▁writing	-5637
rah	-5638
ाँट	-5639
िया	-5640
▁कठ	-5641
क्रा	-5642
▁Pri	-5643
▁map	-5644
▁hect	-5645
▁Custom	-5646
▁बुझाउनु	-5647
▁स्वर्गदूत	-5648
लिप	-5649
atis	-5650
oper	-5651
▁पेट	-5652
▁kept	-5653
▁पर्ख	-5654
▁salary	-5655
▁purposes	-5656
▁परमप्रभुलाई	-5657
बु	-5658
ारमा	-5659
endar	-5660
▁कक्ष	-5661
▁मिल्	-5662
▁२०४८	-5663
▁बाबेल	-5664
▁became	-5665
▁exists	-5666
▁screen	-5667
▁बनाएको	-5668
▁सूचीमा	-5669
▁विकासका	-5670
▁followed	-5671
▁language	-5672
▁specific	-5673
▁196	-5674
▁Mem	-5675
ising	-5676
हरुका	-5677
▁doesn	-5678
▁लगायत	-5679
▁central	-5680
▁specify	-5681
बर	-5682
ier	-5683
pur	-5684
म्म	-5685
▁नमू	-5686
पट्टी	-5687
▁team	-5688
▁vide	-5689
anchay	-5690
▁needs	-5691
▁देवता	-5692
▁पालना	-5693
▁क्रमशः	-5694
▁Hundred	-5695
▁नियमहरू	-5696
▁performed	-5697
oto	-5698
ह्र	-5699
▁wa	-5700
▁Sen	-5701
▁rad	-5702
▁rou	-5703
▁upd	-5704
▁(199	-5705
▁अन्न	-5706
▁समान	-5707
▁तरिकाले	-5708
▁computer	-5709
▁currently	-5710
▁खोल्नुहोस्	-5711
घन	-5712
श्व	-5713
▁आयो	-5714
▁भाइ	-5715
rency	-5716
▁care	-5717
▁थिएँ	-5718
▁दस्त	-5719
▁adver	-5720
▁string	-5721
2)	-5722
ँदा	-5723
power	-5724
▁task	-5725
न्थ्यो	-5726
aff	-5727
देख	-5728
▁हृ	-5729
ream	-5730
▁आम्	-5731
▁कुन	-5732
▁नदि	-5733
▁appeal	-5734
▁too	-5735
▁लगत	-5736
▁परिचय	-5737
▁economy	-5738
▁forever	-5739
▁अदालतमा	-5740
▁विकासमा	-5741
▁citizens	-5742
▁संस्थालाई	-5743
Th	-5744
▁भन	-5745
र्धन	-5746
▁अभाव	-5747
▁चौथो	-5748
atives	-5749
ustice	-5750
▁दक्षि	-5751
▁फोल्ड	-5752
पान्तरण	-5753
▁living	-5754
▁क्षेत्रका	-5755
गल	-5756
ित्त	-5757
▁Sam	-5758
▁asse	-5759
▁built	-5760
▁उपलव्	-5761
▁चाहने	-5762
▁अनुदान	-5763
▁पन्ध्र	-5764
▁भूमिका	-5765
▁स्ट्रिङ	-5766
▁वस्तुहरू	-5767
OR	-5768
where	-5769
▁cash	-5770
▁just	-5771
▁एउटै	-5772
▁items	-5773
▁lines	-5774
▁सिलसि	-5775
▁factor	-5776
▁संशोधित	-5777
▁अध्यक्षता	-5778
▁investigation	-5779
pro	-5780
▁आशा	-5781
ighty	-5782
राज्य	-5783
▁साँचो	-5784
ots	-5785
▁हौ	-5786
plic	-5787
rint	-5788
▁नभए	-5789
▁ener	-5790
▁furn	-5791
▁minimum	-5792
रत	-5793
फ्ट	-5794
▁५०	-5795
▁ताली	-5796
▁known	-5797
▁parts	-5798
▁विवाह	-5799
▁सीमित	-5800
▁मालवस्तु	-5801
▁ownership	-5802
▁द्रष्टव्य	-5803
▁मानिसहरूका	-5804
alse	-5805
gthe	-5806
lier	-5807
▁div	-5808
▁देऊ	-5809
▁human	-5810
▁shares	-5811
▁receiving	-5812
आर	-5813
ते	-5814
▁GN	-5815
▁Saul	-5816
▁जाति	-5817
▁सत्र	-5818
▁वस्तुको	-5819
▁regional	-5820
▁प्रकार्य	-5821
ेलु	-5822
▁ते	-5823
शाली	-5824
▁सक्त	-5825
▁basic	-5826
▁चाहेमा	-5827
▁विश्ले	-5828
▁imprisonment	-5829
ding	-5830
▁निर	-5831
▁names	-5832
▁energy	-5833
▁दिनेछु	-5834
▁adopted	-5835
▁नराम्रो	-5836
कीय	-5837
ब्र	-5838
न्यो	-5839
▁तस्	-5840
▁बनाई	-5841
▁legal	-5842
▁thirty	-5843
▁session	-5844
वट	-5845
बीच	-5846
श्त	-5847
स्थल	-5848
▁fru	-5849
essed	-5850
र्मिक	-5851
▁स्थापित	-5852
used	-5853
▁दोष	-5854
ighth	-5855
▁भारत	-5856
▁इन्टर	-5857
▁क्रममा	-5858
▁priests	-5859
▁recover	-5860
▁गरिरहेको	-5861
▁व्यावसायिक	-5862
अप	-5863
ूक	-5864
let	-5865
क्य	-5866
फिक	-5867
ुत्	-5868
▁पाए	-5869
▁exten	-5870
abilities	-5871
▁सर्वेक्षण	-5872
▁qualification	-5873
ट्	-5874
पद	-5875
ards	-5876
▁dedu	-5877
lecomm	-5878
▁अवधिको	-5879
▁प्रतिकूल	-5880
▁extension	-5881
▁objective	-5882
पट्ट	-5883
▁Config	-5884
▁perman	-5885
स्थितिमा	-5886
▁Relating	-5887
▁तपाईंलाई	-5888
▁प्रकारले	-5889
kn	-5890
तया	-5891
▁mer	-5892
▁कमा	-5893
▁fail	-5894
▁begin	-5895
▁पुत्र	-5896
▁कसैलाई	-5897
▁विद्यार्थ	-5898
con	-5899
वर्ष	-5900
्यानल	-5901
▁यहूद	-5902
▁arbit	-5903
▁शुद्ध	-5904
▁प्रचार	-5905
▁sea	-5906
▁repl	-5907
▁remote	-5908
▁सम्मान	-5909
▁administrative	-5910
10	-5911
5)	-5912
go	-5913
▁बट	-5914
च्या	-5915
▁Int	-5916
▁Sol	-5917
▁ess	-5918
▁crop	-5919
▁विदा	-5920
▁delete	-5921
▁उदाहरण	-5922
▁reasons	-5923
▁running	-5924
▁बोर्डको	-5925
▁टाइ	-5926
▁labor	-5927
vention	-5928
▁agency	-5929
▁समाचार	-5930
▁domestic	-5931
▁maintenance	-5932
uf	-5933
ोस	-5934
▁hon	-5935
onent	-5936
▁घोषण	-5937
▁महान	-5938
▁posts	-5939
▁लिङ्क	-5940
▁भूमिमा	-5941
▁opinion	-5942
▁डाटाबेस	-5943
▁daughter	-5944
▁communication	-5945
धु	-5946
शू	-5947
२०	-5948
▁Ty	-5949
▁सू	-5950
▁197	-5951
iction	-5952
▁princ	-5953
▁मेट्न	-5954
▁आम्दानी	-5955
arliament	-5956
uel	-5957
मानि	-5958
izing	-5959
रुन्त	-5960
▁love	-5961
▁एक्स	-5962
▁फर्क	-5963
▁खुलाई	-5964
▁changed	-5965
▁offices	-5966
▁गराइनेछ	-5967
▁धार्मिक	-5968
▁hospital	-5969
▁सिलसिलामा	-5970
काई	-5971
सुफ	-5972
resp	-5973
न्छौ	-5974
▁दैनिक	-5975
AT	-5976
▁Maj	-5977
under	-5978
▁cast	-5979
aching	-5980
▁Color	-5981
▁comes	-5982
▁layer	-5983
▁rules	-5984
▁nature	-5985
▁पृथ्वी	-5986
▁मूल्या	-5987
▁सम्पाद	-5988
▁स्त्री	-5989
▁योजनाका	-5990
load	-5991
ript	-5992
▁भर्	-5993
▁यही	-5994
किएको	-5995
▁दक्ष	-5996
▁शैली	-5997
tivity	-5998
▁उनलाई	-5999
surance	-6000
▁नगरेमा	-6001
▁रेडियो	-6002
▁licensee	-6003
itch	-6004
▁202	-6005
▁Cons	-6006
▁बढीमा	-6007
▁भ्रमण	-6008
▁तुरुन्त	-6009
▁प्रशिक्षण	-6010
▁Mo	-6011
▁उज	-6012
tics	-6013
▁नक्	-6014
▁पहाडी	-6015
▁पुनर्	-6016
▁Forest	-6017
▁status	-6018
▁तिनलाई	-6019
▁medical	-6020
▁त्यसैले	-6021
▁प्रशंसा	-6022
▁determine	-6023
gu	-6024
arc	-6025
▁bo	-6026
empt	-6027
▁मही	-6028
▁डाउन	-6029
▁बीमा	-6030
▁glory	-6031
▁started	-6032
▁पङ्क्ति	-6033
▁database	-6034
टल	-6035
▁(4)	-6036
▁sky	-6037
▁यथा	-6038
icial	-6039
▁बिना	-6040
▁रुपले	-6041
▁damage	-6042
▁efforts	-6043
हन	-6044
कका	-6045
▁1,	-6046
▁30	-6047
urban	-6048
▁पहाड	-6049
्तिकरण	-6050
▁Centre	-6051
▁शान्ति	-6052
▁consist	-6053
SL	-6054
acob	-6055
▁final	-6056
▁पहिला	-6057
▁यूसुफ	-6058
▁police	-6059
▁अनुरुप	-6060
▁नसक्ने	-6061
lt	-6062
लै	-6063
नीत	-6064
▁Qu	-6065
याकलाप	-6066
▁input	-6067
▁कहिले	-6068
▁Intern	-6069
▁आयोजनाको	-6070
▁स्वतन्त्र	-6071
▁remuneration	-6072
box	-6073
lesh	-6074
serv	-6075
▁Vice	-6076
▁शासन	-6077
▁going	-6078
▁ढुङ्गा	-6079
▁शब्दले	-6080
▁सुरुआत	-6081
yl	-6082
reg	-6083
चिम	-6084
▁false	-6085
▁Region	-6086
▁स्वदेश	-6087
▁nothing	-6088
unication	-6089
▁exercise	-6090
▁signature	-6091
▁एली	-6092
▁श्र	-6093
▁coll	-6094
▁fear	-6095
▁hist	-6096
▁सामान	-6097
▁कुरामा	-6098
▁येशूलाई	-6099
▁commission	-6100
▁	-6101
▁Key	-6102
▁hour	-6103
▁keys	-6104
▁ठूला	-6105
▁आफूलाई	-6106
▁देखेमा	-6107
▁क्यारेक्टर	-6108
5.	-6109
टे	-6110
isl	-6111
ule	-6112
▁vol	-6113
दिएको	-6114
▁wall	-6115
▁तोके	-6116
▁त्रि	-6117
▁stood	-6118
▁ब्राउ	-6119
▁मूर्ति	-6120
▁infrast	-6121
▁programs	-6122
▁सबैभन्दा	-6123
▁डी	-6124
▁fut	-6125
▁High	-6126
▁Phil	-6127
▁परेन	-6128
idered	-6129
▁click	-6130
▁पठाउन	-6131
▁Change	-6132
▁discipl	-6133
▁constructed	-6134
▁Registration	-6135
▁arrangements	-6136
क्षी	-6137
▁हालै	-6138
▁Jacob	-6139
▁hereby	-6140
▁पूर्वाधार	-6141
▁विश्वविद्यालयको	-6142
ड्ड	-6143
न्ज	-6144
▁कल	-6145
rific	-6146
▁Work	-6147
▁home	-6148
▁अनुप	-6149
▁लगइन	-6150
porary	-6151
ternal	-6152
▁subst	-6153
aration	-6154
▁उपलव्ध	-6155
▁प्रश्न	-6156
▁समुदाय	-6157
▁amongst	-6158
▁continu	-6159
▁remaining	-6160
तः	-6161
▁!	-6162
थिर	-6163
ाउँदा	-6164
▁From	-6165
▁cult	-6166
▁dise	-6167
▁seen	-6168
▁पाउन	-6169
▁flesh	-6170
▁Associ	-6171
▁कामहरू	-6172
▁fulfill	-6173
▁proceedings	-6174
▁की	-6175
▁Tax	-6176
etent	-6177
▁base	-6178
▁half	-6179
▁कष्ट	-6180
▁उपभोग	-6181
▁postal	-6182
▁presence	-6183
▁गुप्तिकरण	-6184
▁प्रतिज्ञा	-6185
बे	-6186
्च	-6187
▁शो	-6188
▁Who	-6189
▁घोषणा	-6190
▁मोशाले	-6191
▁अधिराज्य	-6192
▁treatment	-6193
ढी	-6194
ुख	-6195
▁नद	-6196
रिया	-6197
▁game	-6198
▁added	-6199
पथ	-6200
aced	-6201
▁rev	-6202
▁हेर्	-6203
▁Secur	-6204
▁altar	-6205
▁कोषमा	-6206
▁animal	-6207
▁निर्गत	-6208
▁शहरहरू	-6209
▁manpower	-6210
▁प्रत्यक्ष	-6211
▁responsibility	-6212
पोर	-6213
list	-6214
यारी	-6215
▁ques	-6216
▁युवा	-6217
▁choose	-6218
▁Meeting	-6219
▁invalid	-6220
▁primary	-6221
▁सवारीको	-6222
4.	-6223
ाा	-6224
चाई	-6225
र्द्ध	-6226
struct	-6227
▁major	-6228
▁यसबाट	-6229
परमप्रभु	-6230
▁परिभाषा	-6231
▁समितिमा	-6232
▁authentic	-6233
▁हेर्नुहोस्	-6234
gisl	-6235
▁पलि	-6236
▁निरी	-6237
▁बहाल	-6238
▁Image	-6239
▁midst	-6240
▁अञ्चल	-6241
▁conver	-6242
▁success	-6243
▁Agricult	-6244
▁उद्देश्यले	-6245
यं	-6246
esh	-6247
ken	-6248
मका	-6249
▁El	-6250
▁बढ्	-6251
▁वैध	-6252
▁त्यसै	-6253
▁नभएमा	-6254
▁सक्तैन	-6255
ditional	-6256
▁न्यायाधी	-6257
▁सुदृढीकरण	-6258
तह	-6259
१२	-6260
द्व	-6261
▁क्र	-6262
▁स्म	-6263
gment	-6264
▁बनाउँ	-6265
व्यक्ति	-6266
▁Powers	-6267
▁अपाङ्ग	-6268
▁दाज्यू	-6269
▁मनोनीत	-6270
▁returned	-6271
▁respective	-6272
▁Of	-6273
arer	-6274
ware	-6275
▁गलत	-6276
▁शहरी	-6277
▁चलाउन	-6278
▁device	-6279
▁nation	-6280
▁constituted	-6281
.)	-6282
चर	-6283
सन	-6284
र्का	-6285
विष्ट	-6286
▁आवाज	-6287
▁प्रस	-6288
▁night	-6289
▁urban	-6290
inition	-6291
▁border	-6292
▁holding	-6293
▁चिकित्स	-6294
▁सचिवालय	-6295
▁योजनावधि	-6296
OME	-6297
कर्म	-6298
▁fre	-6299
▁थाल	-6300
▁रूख	-6301
▁link	-6302
▁tree	-6303
▁रकमको	-6304
▁liable	-6305
▁मनासिब	-6306
▁Minister	-6307
▁operating	-6308
▁जिम्मेवारी	-6309
aron	-6310
तपाई	-6311
नीको	-6312
ाउनेछ	-6313
▁tele	-6314
▁आकार	-6315
▁Short	-6316
▁waters	-6317
▁तत्काल	-6318
▁forward	-6319
▁tourism	-6320
▁मूल्यमा	-6321
▁proposed	-6322
▁प्रोफाइल	-6323
▁Inv	-6324
▁छाप	-6325
orrow	-6326
▁host	-6327
▁कागज	-6328
▁बराबर	-6329
▁Import	-6330
▁संरचना	-6331
▁However	-6332
▁achieve	-6333
▁Insurance	-6334
▁essential	-6335
▁background	-6336
▁रजिष्ट्रार	-6337
bs	-6338
ung	-6339
ब्जा	-6340
▁wis	-6341
▁राय	-6342
▁लिखत	-6343
वृद्धि	-6344
▁घरेलु	-6345
▁accomp	-6346
▁similar	-6347
▁पहिल्यै	-6348
▁continue	-6349
▁necessity	-6350
iec	-6351
लित	-6352
▁खे	-6353
peak	-6354
▁तेल	-6355
कियाह	-6356
▁once	-6357
▁अङ्ग	-6358
▁Trust	-6359
▁board	-6360
▁विरोध	-6361
▁विवाद	-6362
▁पलिश्त	-6363
▁विभाजन	-6364
▁सम्भार	-6365
▁मान्यता	-6366
▁थप्नुहोस्	-6367
):	-6368
ray	-6369
▁२६	-6370
समूह	-6371
▁काउ	-6372
बन्दी	-6373
▁Note	-6374
▁expl	-6375
▁jour	-6376
▁print	-6377
▁संसूच	-6378
▁यात्रा	-6379
▁considered	-6380
▁बनाउनुहोस्	-6381
ीस	-6382
oun	-6383
road	-6384
▁वेब	-6385
ename	-6386
▁upto	-6387
▁गरें	-6388
eering	-6389
▁entered	-6390
ुक	-6391
ison	-6392
ansion	-6393
▁compe	-6394
▁empty	-6395
▁सहमति	-6396
▁साधनको	-6397
▁balance	-6398
▁guarant	-6399
▁regarding	-6400
▁विषयवस्तु	-6401
AN	-6402
▁घा	-6403
▁धू	-6404
बारे	-6405
▁Cur	-6406
▁enh	-6407
▁भएन	-6408
▁List	-6409
▁font	-6410
▁अग्र	-6411
▁रचना	-6412
▁२०६६	-6413
▁close	-6414
▁दिएमा	-6415
▁filter	-6416
▁सेवामा	-6417
ological	-6418
▁Certificate	-6419
––	-6420
▁num	-6421
▁seem	-6422
▁true	-6423
▁नसके	-6424
▁Polic	-6425
▁trust	-6426
▁सहितको	-6427
▁कम्पनीको	-6428
▁पर्वतारो	-6429
▁सम्पत्तिको	-6430
prise	-6431
▁seek	-6432
▁उन्न	-6433
▁गरीब	-6434
▁joint	-6435
▁चेताव	-6436
▁नक्सा	-6437
▁यस्तै	-6438
▁depart	-6439
▁strong	-6440
▁कार्यरत	-6441
रै	-6442
ata	-6443
▁5.	-6444
किने	-6445
▁row	-6446
▁डिज	-6447
▁दुः	-6448
▁cell	-6449
▁इमेल	-6450
▁ऊर्जा	-6451
▁खाद्या	-6452
▁planning	-6453
▁collection	-6454
Be	-6455
ne	-6456
▁एकै	-6457
मार्ग	-6458
▁born	-6459
▁नलाग	-6460
▁fails	-6461
▁further	-6462
▁liability	-6463
▁inspection	-6464
एली	-6465
भाइ	-6466
स्को	-6467
▁XML	-6468
rison	-6469
म्परा	-6470
▁pict	-6471
▁told	-6472
▁शरीर	-6473
ticles	-6474
▁audit	-6475
▁drink	-6476
▁expand	-6477
▁saving	-6478
▁कारवाही	-6479
▁मात्रामा	-6480
▁discussion	-6481
ayer	-6482
▁ter	-6483
▁रहन	-6484
arent	-6485
▁सधैं	-6486
ivered	-6487
▁fifty	-6488
▁स्विच	-6489
▁कार्यहरू	-6490
▁structure	-6491
▁Information	-6492
▁arrangement	-6493
▁Lab	-6494
▁बाकस	-6495
▁India	-6496
▁स्तरमा	-6497
▁आन	-6498
▁बसो	-6499
▁chan	-6500
▁महसुल	-6501
▁नगरेको	-6502
▁वास्तव	-6503
▁विश्लेषण	-6504
▁पुनरावलोकन	-6505
gate	-6506
▁waste	-6507
▁गर्यौ	-6508
▁दीर्घ	-6509
▁पार्नु	-6510
▁deliver	-6511
▁प्रत्यायोजन	-6512
म्र	-6513
लाका	-6514
सँगै	-6515
▁सदा	-6516
▁Edit	-6517
▁arch	-6518
▁मोही	-6519
▁Aaron	-6520
▁जिम्मा	-6521
▁studies	-6522
▁अदालतको	-6523
▁उत्पादनमा	-6524
सञ्	-6525
▁Sur	-6526
▁ढुवा	-6527
▁बाली	-6528
▁बिमा	-6529
▁ग्रहण	-6530
▁Search	-6531
▁filled	-6532
▁कुराहरु	-6533
▁विरुद्ध	-6534
▁Association	-6535
हीन	-6536
लीमा	-6537
▁Att	-6538
▁मारि	-6539
▁सिका	-6540
▁saved	-6541
▁फाराम	-6542
प्राप्त	-6543
▁prices	-6544
▁turned	-6545
▁स्पष्टीकरण	-6546
ache	-6547
▁Bus	-6548
▁जाऊ	-6549
▁What	-6550
▁bear	-6551
▁laid	-6552
▁little	-6553
▁minist	-6554
▁दक्षिण	-6555
▁appears	-6556
▁परम्परा	-6557
▁विशेषता	-6558
▁conferred	-6559
▁transactions	-6560
उप	-6561
एम	-6562
alty	-6563
▁Val	-6564
▁अचल	-6565
▁liqu	-6566
▁आउनु	-6567
स्थापन	-6568
▁mouse	-6569
▁sight	-6570
▁जान्छ	-6571
▁स्वयं	-6572
▁complete	-6573
▁सार्नुहोस्	-6574
ump	-6575
unt	-6576
ङ्‍	-6577
▁Su	-6578
सचिव	-6579
▁Est	-6580
▁ड्र	-6581
▁तीस	-6582
▁(200	-6583
▁धारा	-6584
▁फोहर	-6585
▁रहेछ	-6586
▁alarm	-6587
▁lower	-6588
▁passed	-6589
▁silver	-6590
▁चाहेको	-6591
▁अघिल्लो	-6592
▁accompan	-6593
▁परिषद्ले	-6594
▁प्रकारका	-6595
▁समाविष्ट	-6596
▁delivered	-6597
▁आयोजनाहरु	-6598
eric	-6599
lean	-6600
तिमी	-6601
▁दास	-6602
▁HTML	-6603
▁आफैं	-6604
▁घण्ट	-6605
▁burnt	-6606
▁evalu	-6607
▁later	-6608
▁आनन्द	-6609
▁अब्राह	-6610
▁renewal	-6611
▁windows	-6612
▁परिमार्जन	-6613
▁शक्तिशाली	-6614
ंस	-6615
▁Bh	-6616
▁ge	-6617
▁हद	-6618
▁pot	-6619
▁गल्	-6620
मानको	-6621
▁First	-6622
▁तरवार	-6623
▁पुग्न	-6624
▁सक्छौ	-6625
▁contra	-6626
▁regions	-6627
▁उत्पादक	-6628
2,	-6629
झा	-6630
रीत	-6631
▁Sw	-6632
प्ति	-6633
▁आरो	-6634
र्चाइ	-6635
▁thus	-6636
▁नगरी	-6637
▁मानव	-6638
retari	-6639
titude	-6640
▁equal	-6641
▁gradu	-6642
▁assets	-6643
▁दाखिला	-6644
▁परिणाम	-6645
9.	-6646
uly	-6647
िने	-6648
्दा	-6649
▁7.	-6650
atch	-6651
▁सीप	-6652
▁दुःख	-6653
▁भएता	-6654
▁शुरू	-6655
▁कट्टी	-6656
▁नमूना	-6657
▁broadc	-6658
▁प्रवाह	-6659
▁निरन्तर	-6660
▁समायोजन	-6661
▁contains	-6662
▁administration	-6663
र्ई	-6664
▁थर	-6665
▁दू	-6666
ruck	-6667
▁कला	-6668
ufact	-6669
▁उल्ल	-6670
▁रुको	-6671
▁समाज	-6672
▁actions	-6673
▁undertaken	-6674
▁accompanied	-6675
▁एस	-6676
▁few	-6677
▁famil	-6678
▁absence	-6679
▁desktop	-6680
▁Registrar	-6681
▁क्षेत्रलाई	-6682
गु	-6683
▁आक	-6684
▁गई	-6685
▁May	-6686
▁oil	-6687
▁seed	-6688
▁stri	-6689
द्र्धन	-6690
▁lived	-6691
▁तालीम	-6692
ference	-6693
tention	-6694
▁repair	-6695
government	-6696
▁माध्यमबाट	-6697
दू	-6698
▁Out	-6699
▁sty	-6700
▁कमी	-6701
▁subs	-6702
▁youth	-6703
▁अडियो	-6704
▁जीवित	-6705
▁श्रेणी	-6706
▁produced	-6707
▁गरिनेछन्	-6708
▁परिभाषित	-6709
▁कम्प्युटर	-6710
▁परमेश्वरका	-6711
▁notification	-6712
शास	-6713
पाटी	-6714
यनको	-6715
▁बेच	-6716
▁deal	-6717
▁सम्व	-6718
▁spirit	-6719
▁connect	-6720
▁अमेरिकी	-6721
5,	-6722
▁=	-6723
नोम	-6724
फेर	-6725
▁धन	-6726
cell	-6727
दछन्	-6728
शाला	-6729
▁hyd	-6730
▁sac	-6731
▁कालो	-6732
▁फ्या	-6733
▁हृदय	-6734
स्तिका	-6735
▁Under	-6736
▁houses	-6737
▁चीजहरू	-6738
▁Majesty	-6739
▁measures	-6740
यस	-6741
किए	-6742
book	-6743
phas	-6744
▁And	-6745
▁Mon	-6746
▁आधा	-6747
▁दिनमा	-6748
▁पर्खाल	-6749
▁Details	-6750
▁calendar	-6751
▁insurance	-6752
▁supported	-6753
▁hor	-6754
ables	-6755
▁Group	-6756
▁apply	-6757
▁जरिबा	-6758
▁profit	-6759
▁promot	-6760
▁सङ्कलन	-6761
retariat	-6762
▁sources	-6763
▁२८	-6764
ाउँदै	-6765
ateral	-6766
itness	-6767
नात्मक	-6768
▁ब्याज	-6769
▁others	-6770
▁जनाउँछ	-6771
▁दस्तखत	-6772
▁पदावधि	-6773
▁विभागीय	-6774
▁समेतलाई	-6775
▁agencies	-6776
▁मुद्दाको	-6777
▁generation	-6778
▁प्रोत्साहन	-6779
▁Ah	-6780
लाइन	-6781
▁kings	-6782
▁though	-6783
▁advance	-6784
▁issuing	-6785
▁निलम्बन	-6786
▁expansion	-6787
7)	-6788
▁asp	-6789
▁eas	-6790
▁जला	-6791
▁feas	-6792
▁norm	-6793
▁पावल	-6794
▁coven	-6795
▁ग्राह	-6796
▁मुक्त	-6797
▁आक्रमण	-6798
▁टुक्रा	-6799
hibition	-6800
▁allowance	-6801
▁operations	-6802
▁योजनावधिमा	-6803
कलन	-6804
▁अख	-6805
ince	-6806
▁खरी	-6807
▁चरण	-6808
known	-6809
▁unit	-6810
▁पठाए	-6811
▁स्थल	-6812
▁asked	-6813
▁groups	-6814
▁proced	-6815
▁पुर्या	-6816
▁राजाको	-6817
▁चेतावनी	-6818
▁contents	-6819
▁character	-6820
▁elsewhere	-6821
▁स्क्रिप्ट	-6822
band	-6823
बेला	-6824
हामी	-6825
▁role	-6826
▁बोल्	-6827
▁types	-6828
ज्ञानिक	-6829
▁अब्राहाम	-6830
▁Notification	-6831
तार	-6832
face	-6833
ises	-6834
▁cub	-6835
▁ple	-6836
▁नलि	-6837
▁हिं	-6838
ators	-6839
▁वापत	-6840
▁serve	-6841
▁अगावै	-6842
▁सृजना	-6843
▁inform	-6844
▁citizen	-6845
▁sacrific	-6846
▁इस्राएली	-6847
▁expression	-6848
gre	-6849
▁बल	-6850
▁काट	-6851
cribe	-6852
जस्ता	-6853
▁अप्र	-6854
▁दरले	-6855
▁वायु	-6856
▁encry	-6857
▁struck	-6858
▁खर्चको	-6859
▁execute	-6860
▁package	-6861
▁utilization	-6862
चाह	-6863
यौं	-6864
lied	-6865
स्रोत	-6866
▁(3),	-6867
▁quot	-6868
▁अवसर	-6869
▁असूल	-6870
verage	-6871
▁video	-6872
▁तस्वी	-6873
▁तिनको	-6874
▁योजनाकालमा	-6875
त्र्	-6876
▁lin	-6877
स्तरीय	-6878
▁inher	-6879
▁अपराध	-6880
▁पत्ता	-6881
▁भागमा	-6882
▁billion	-6883
▁farmers	-6884
▁hectares	-6885
▁Du	-6886
ompl	-6887
▁GDM	-6888
▁mag	-6889
▁debt	-6890
▁नबुझ	-6891
▁इच्छा	-6892
▁सुन्द	-6893
▁kingdom	-6894
▁काउन्सि	-6895
▁covenant	-6896
▁अर्थतन्त्र	-6897
▁क्षेत्रभित्र	-6898
aph	-6899
obal	-6900
»»»»	-6901
िकरण	-6902
▁cul	-6903
▁ric	-6904
▁याद	-6905
osing	-6906
▁rele	-6907
▁बिरु	-6908
ीहरूका	-6909
▁named	-6910
▁रिक्त	-6911
▁either	-6912
▁राजस्व	-6913
▁विपरीत	-6914
▁यरूशलेममा	-6915
▁submission	-6916
▁governmental	-6917
भो	-6918
▁जनस	-6919
ilder	-6920
ought	-6921
uting	-6922
▁acce	-6923
▁tons	-6924
ecause	-6925
▁cover	-6926
▁प्राय	-6927
▁सट्टा	-6928
▁integr	-6929
▁manage	-6930
--------	-6931
▁princip	-6932
▁पञ्चायत	-6933
▁अधिकारीको	-6934
लका	-6935
▁100	-6936
▁ord	-6937
▁piec	-6938
▁केवल	-6939
▁खरीद	-6940
▁खेती	-6941
▁थप्न	-6942
वालाले	-6943
▁banks	-6944
▁direc	-6945
▁चित्र	-6946
▁सर्वो	-6947
▁centre	-6948
▁प्रदेश	-6949
▁रोजगार	-6950
▁हेरफेर	-6951
▁enabled	-6952
▁limited	-6953
▁collected	-6954
▁व्यवस्थित	-6955
oke	-6956
ँदै	-6957
▁र्	-6958
▁खाल	-6959
▁पक्र	-6960
्यानमा	-6961
▁clean	-6962
▁ध्वनि	-6963
▁ढुवानी	-6964
▁पर्यटक	-6965
▁पश्चिम	-6966
▁रुपैया	-6967
▁हटाउनुहोस्	-6968
30	-6969
बास	-6970
▁फे	-6971
▁शिम	-6972
▁Only	-6973
क्षकको	-6974
▁alter	-6975
▁break	-6976
▁space	-6977
नुहुन्न	-6978
▁चाहिने	-6979
▁जरिबाना	-6980
▁संस्थागत	-6981
पाइ	-6982
लिन	-6983
▁50	-6984
▁२७	-6985
ival	-6986
▁Ben	-6987
▁पछा	-6988
▁राह	-6989
▁clim	-6990
▁poor	-6991
▁असुल	-6992
▁भन्न	-6993
▁दायरा	-6994
▁Export	-6995
▁Unless	-6996
▁आफ्नोे	-6997
▁accompl	-6998
▁professional	-6999
चे	-7000
oud	-7001
▁Ir	-7002
▁आर	-7003
दायक	-7004
▁Bab	-7005
aries	-7006
▁सुनि	-7007
▁agent	-7008
▁भन्यो	-7009
▁मालपो	-7010
▁Spirit	-7011
▁पानीको	-7012
▁मानिने	-7013
▁राखेको	-7014
▁दर्ताको	-7015
▁जिल्लामा	-7016
▁पदार्थको	-7017
▁क्रियाकलाप	-7018
▁विद्यार्थी	-7019
▁automatically	-7020
▁Par	-7021
स्थान	-7022
▁स्या	-7023
▁रक्षा	-7024
▁त्यसमा	-7025
▁साँच्च	-7026
मध्येबाट	-7027
▁monitoring	-7028
6.	-7029
िकल	-7030
▁लेव	-7031
▁माउस	-7032
▁route	-7033
▁Eighth	-7034
▁worker	-7035
▁असक्षम	-7036
▁कानूनी	-7037
▁धितोको	-7038
▁teachers	-7039
नेर	-7040
qual	-7041
मिटर	-7042
▁रगत	-7043
▁रोक	-7044
▁२००	-7045
hered	-7046
▁hill	-7047
▁राखे	-7048
▁alloc	-7049
▁मूर्ख	-7050
▁सुम्प	-7051
▁produce	-7052
▁towards	-7053
▁क्याम्प	-7054
▁समितिका	-7055
▁quantity	-7056
3,	-7057
TP	-7058
cut	-7059
▁`'	-7060
र्खा	-7061
▁die	-7062
▁lik	-7063
▁गाउ	-7064
▁माइ	-7065
▁room	-7066
▁town	-7067
▁देख्	-7068
▁बनाउ	-7069
ovable	-7070
▁उपहार	-7071
▁महिमा	-7072
▁extent	-7073
▁future	-7074
▁Display	-7075
▁तपाईंका	-7076
▁प्रस्तावित	-7077
7.	-7078
tr	-7079
▁झु	-7080
क्रो	-7081
खाना	-7082
▁icon	-7083
▁आँखा	-7084
▁जसको	-7085
▁Order	-7086
▁यहोशू	-7087
▁killed	-7088
▁punish	-7089
▁example	-7090
▁inherit	-7091
▁देखिएको	-7092
▁ल्याउनु	-7093
▁publication	-7094
8.	-7095
▁फा	-7096
ज्ञात	-7097
▁Insp	-7098
▁Pres	-7099
▁kill	-7100
▁थाले	-7101
......	-7102
ording	-7103
▁deems	-7104
▁चौडाइ	-7105
▁लेख्न	-7106
tifying	-7107
▁Father	-7108
▁currency	-7109
ieved	-7110
▁छोरी	-7111
▁दिशा	-7112
▁Techn	-7113
▁radio	-7114
▁त्यति	-7115
▁स्थिर	-7116
▁secretary	-7117
▁गर्नुभएको	-7118
▁consideration	-7119
▁cr	-7120
land	-7121
▁Son	-7122
ाइनेछ	-7123
▁Mark	-7124
▁fell	-7125
usband	-7126
बालिका	-7127
बृद्धि	-7128
▁loans	-7129
▁आफैले	-7130
▁गर्छौ	-7131
▁coming	-7132
▁village	-7133
▁manufact	-7134
▁Application	-7135
किन	-7136
omon	-7137
ान्त	-7138
▁Jeh	-7139
attle	-7140
▁छिटो	-7141
ulated	-7142
▁Third	-7143
▁ध्वंश	-7144
▁पूर्ति	-7145
▁डाउनलोड	-7146
ची	-7147
ेय	-7148
वाट	-7149
▁fig	-7150
▁हाइ	-7151
▁More	-7152
▁Such	-7153
▁please	-7154
▁देखिने	-7155
▁नपर्ने	-7156
▁विद्यमान	-7157
▁resolution	-7158
▁प्रतिष्ठानको	-7159
lig	-7160
▁सक	-7161
▁Ten	-7162
▁मरू	-7163
▁विज	-7164
▁Move	-7165
▁code	-7166
▁तराई	-7167
▁थिच्	-7168
▁२०६३	-7169
कुलपति	-7170
▁cance	-7171
▁track	-7172
anation	-7173
▁bidder	-7174
▁liquid	-7175
▁Default	-7176
▁deposited	-7177
▁publishing	-7178
रस	-7179
rec	-7180
▁चढा	-7181
▁फिर	-7182
▁लिए	-7183
स्कार	-7184
स्पर्	-7185
▁feet	-7186
▁site	-7187
▁खराब	-7188
▁Start	-7189
▁Trade	-7190
▁Legisl	-7191
▁जनताको	-7192
▁portion	-7193
▁incurred	-7194
ani	-7195
ttp	-7196
▁धर	-7197
पक्ष	-7198
▁card	-7199
▁चालू	-7200
Behold	-7201
▁black	-7202
▁ट्रेड	-7203
▁भनेको	-7204
▁स्त्र	-7205
▁spoken	-7206
▁बेलामा	-7207
▁objects	-7208
▁prevent	-7209
▁schools	-7210
▁directly	-7211
▁original	-7212
▁procedure	-7213
▁throughout	-7214
▁righteousness	-7215
▁0.	-7216
▁km	-7217
ighb	-7218
ङ्कन	-7219
ण्डा	-7220
▁Ter	-7221
ially	-7222
▁फाँट	-7223
▁doing	-7224
▁हारून	-7225
▁देखाउन	-7226
▁नसकेको	-7227
▁enemies	-7228
▁पुस्तकचि	-7229
पुग	-7230
erve	-7231
▁Lev	-7232
▁लिइ	-7233
fully	-7234
valid	-7235
नेपाल	-7236
बोर्ड	-7237
▁House	-7238
▁inhab	-7239
▁match	-7240
▁टेम्प	-7241
▁ल्याए	-7242
▁इतिहास	-7243
▁निर्भर	-7244
▁हेर्ने	-7245
▁personal	-7246
४७	-7247
ेकी	-7248
▁IM	-7249
ames	-7250
term	-7251
लिया	-7252
▁brid	-7253
▁भन्‍	-7254
▁भेला	-7255
▁स्रो	-7256
urname	-7257
▁steps	-7258
▁श्रेण	-7259
▁impact	-7260
▁व्यापक	-7261
▁Central	-7262
▁options	-7263
▁purchase	-7264
▁कार्यहरु	-7265
▁सहभागिता	-7266
20	-7267
If	-7268
५०	-7269
नाथ	-7270
लेट	-7271
जन्य	-7272
▁mov	-7273
▁असम	-7274
ength	-7275
हरूसँग	-7276
▁staff	-7277
▁उपत्य	-7278
▁Window	-7279
▁रोक्का	-7280
▁सक्छन्	-7281
▁Customs	-7282
▁consent	-7283
▁estimate	-7284
▁imported	-7285
▁standards	-7286
▁अनुमतिपत्रको	-7287
19	-7288
IN	-7289
भी	-7290
लेर	-7291
▁sn	-7292
▁कदम	-7293
▁Water	-7294
▁river	-7295
▁System	-7296
▁removed	-7297
▁उपत्यका	-7298
▁व्यवस्थाको	-7299
▁responsible	-7300
gun	-7301
heme	-7302
ylon	-7303
न्थे	-7304
▁pan	-7305
▁टगल	-7306
▁१००	-7307
▁note	-7308
▁ways	-7309
▁GNOME	-7310
▁Speak	-7311
▁divid	-7312
▁ऋणपत्र	-7313
▁पुरानो	-7314
▁Solomon	-7315
▁नलागेमा	-7316
▁न्यायाधीश	-7317
▁रूपान्तरण	-7318
▁circumstances	-7319
aily	-7320
व्या	-7321
▁gar	-7322
▁sen	-7323
▁none	-7324
▁bound	-7325
liminary	-7326
▁clearly	-7327
▁किसिमका	-7328
ilderness	-7329
▁punished	-7330
▁displayed	-7331
▁guarantee	-7332
▁बालबालिका	-7333
▁प्रतिस्पर्	-7334
ठो	-7335
set	-7336
सला	-7337
▁२९	-7338
▁gone	-7339
▁lord	-7340
▁औजार	-7341
▁बिदा	-7342
▁लेखिए	-7343
▁Twenty	-7344
anchayat	-7345
▁Babylon	-7346
▁भविष्यमा	-7347
▁temporary	-7348
▁wilderness	-7349
▁प्रस्तावको	-7350
तृ	-7351
षे	-7352
▁lib	-7353
▁अल्	-7354
▁एल्	-7355
▁बनि	-7356
▁रेख	-7357
ulate	-7358
नुभयो	-7359
▁flow	-7360
▁gate	-7361
▁const	-7362
▁index	-7363
▁iniqu	-7364
▁levels	-7365
▁एकीकृत	-7366
▁फाइलको	-7367
▁योगदान	-7368
▁initial	-7369
▁Financial	-7370
zz	-7371
ium	-7372
rem	-7373
▁Jos	-7374
▁ask	-7375
▁शपथ	-7376
idden	-7377
▁कोठा	-7378
estern	-7379
▁दिंदा	-7380
▁offense	-7381
▁ल्याउने	-7382
▁improved	-7383
▁खाद्यान्न	-7384
;)	-7385
sc	-7386
▁	-7387
e	-7388
t	-7389
ा	-7390
्	-7391
o	-7392
a	-7393
र	-7394
i	-7395
n	-7396
r	-7397
न	-7398
s	-7399
क	-7400
ि	-7401
h	-7402
l	-7403
स	-7404
d	-7405
म	-7406
त	-7407
ो	-7408
े	-7409
c	-7410
ल	-7411
प	-7412
य	-7413
u	-7414
m	-7415
f	-7416
p	-7417
ु	-7418
ह	-7419
ग	-7420
व	-7421
.	-7422
द	-7423
ी	-7424
,	-7425
g	-7426
y	-7427
b	-7428
w	-7429
ब	-7430
ज	-7431
v	-7432
ू	-7433
छ	-7434
भ	-7435
।	-7436
ट	-7437
अ	-7438
ए	-7439
उ	-7440
श	-7441
ध	-7442
थ	-7443
ै	-7444
च	-7445
)	-7446
ष	-7447
(	-7448
ई	-7449
ख	-7450
k	-7451
ण	-7452
ँ	-7453
आ	-7454
फ	-7455
T	-7456
ड	-7457
ं	-7458
S	-7459
-	-7460
इ	-7461
A	-7462
C	-7463
I	-7464
:	-7465
x	-7466
१	-7467
1	-7468
P	-7469
"	-7470
ठ	-7471
२	-7472
D	-7473
N	-7474
M	-7475
ृ	-7476
0	-7477
R	-7478
ौ	-7479
2	-7480
B	-7481
G	-7482
०	-7483
ः	-7484
ङ	-7485
'	-7486
ञ	-7487
F	-7488
E	-7489
ढ	-7490
घ	-7491
झ	-7492
j	-7493
३	-7494
;	-7495
“	-7496
q	-7497
O	-7498
L	-7499
z	-7500
/	-7501
H	-7502
४	-7503
–	-7504
Y	-7505
W	-7506
५	-7507
9	-7508
”	-7509
3	-7510
?	-7511
5	-7512
J	-7513
६	-7514
U	-7515
ऐ	-7516
4	-7517
6	-7518
७	-7519
8	-7520
९	-7521
८	-7522
K	-7523
ऊ	-7524
7	-7525
!	-7526
V	-7527
%	-7528
औ	-7529
‍	-7530
‘	-7531
ओ	-7532
\	-7533
’	-7534
&	-7535
ऋ	-7536
X	-7537
Z	-7538
=	-7539
#	-7540
$	-7541
Q	-7542
*	-7543
>	-7544
[	-7545
]	-7546
»	-7547
`	-7548
+	-7549
<	-7550
@	-7551
{	-7552
}	-7553
	-7554
—	-7555
·	-7556
«	-7557
	-7558
̊	-7559
	-7560
Ç	-7561
	-7562
	-7563
^	-7564
	-7565
	-7566
~	-7567
é	-7568
	-7569
	-7570
	-7571
	-7572
	-7573
	-7574
_	-7575
ã	-7576
	-7577
	-7578
	-7579
í	-7580
	-7581
	-7582
•	-7583
©	-7584
	-7585
	-7586
	-7587
	-7588
	-7589
	-7590
	-7591
	-7592
	-7593
â	-7594
≠	-7595
	-7596
	-7597
€	-7598
	-7599
	-7600
	-7601
	-7602
	-7603
	-7604
	-7605
	-7606
á	-7607
	-7608
	-7609
	-7610
	-7611
	-7612
	-7613
×	-7614
	-7615
	-7616
	-7617
→	-7618
	-7619
	-7620
°	-7621
ñ	-7622
	-7623
	-7624
	-7625
	-7626
	-7627
	-7628
Ô	-7629
	-7630
	-7631
	-7632
	-7633
≈	-7634
	-7635
	-7636
	-7637
	-7638
	-7639
	-7640
	-7641
	-7642
Â	-7643
⁄	-7644
	-7645
	-7646
	-7647
	-7648
	-7649
	-7650
	-7651
	-7652
и	-7653
	-7654
	-7655
	-7656
	-7657
	-7658
	-7659
	-7660
ó	-7661
	-7662
	-7663
	-7664
	-7665
	-7666
	-7667
	-7668
	-7669
ü	-7670
	-7671
Ò	-7672
ç	-7673
ú	-7674
़	-7675
	-7676
	-7677
а	-7678
ऒ	-7679
	-7680
	-7681
	-7682
	-7683
▲	-7684
	-7685
	-7686
	-7687
	-7688
	-7689
	-7690
à	-7691
е	-7692
н	-7693
р	-7694
т	-7695
‽	-7696
	-7697
	-7698
	-7699
ê	-7700
ô	-7701
ö	-7702
॰	-7703
‬	-7704
	-7705
	-7706
	-7707
	-7708
|	-7709
θ	-7710
М	-7711
‪	-7712
	-7713
	-7714
ä	-7715
ò	-7716
̈	-7717
۞	-7718
	-7719
	-7720
	-7721
	-7722
	-7723
®	-7724
̧	-7725
ऱ	-7726
の	-7727
	-7728
	-7729
	-7730
	-7731
	-7732
	-7733
	-7734
	-7735
è	-7736
μ	-7737
ر	-7738
ॉ	-7739
	-7740
	-7741
±	-7742
Á	-7743
Ï	-7744
æ	-7745
ï	-7746
ă	-7747
œ	-7748
Ş	-7749
ş	-7750
Ţ	-7751
ţ	-7752
Μ	-7753
ά	-7754
η	-7755
ρ	-7756
ς	-7757
τ	-7758
к	-7759
ц	-7760
ا	-7761
ی	-7762
⚡	-7763
「	-7764
」	-7765
な	-7766
ん	-7767
ア	-7768
キ	-7769
ラ	-7770
不	-7771
便	-7772
地	-7773
所	-7774
浄	-7775
	-7776
	-7777
	-7778
	-7779
	-7780
	-7781
	-7782
	-7783
	-7784
	-7785
	-7786
	-7787
️	-7788
💦	-7789
£	-7790
Ä	-7791
É	-7792
Ú	-7793
å	-7794
ø	-7795
ý	-7796
ō	-7797
́	-7798
̃	-7799
م	-7800
‚	-7801
√	-7802
∞	-7803
∶	-7804
■	-7805
☺	-7806
♥	-7807
	-7808
	-7809
	-7810
	-7811
	-7812
	-7813
	-7814
	-7815
	-7816
¡	-7817
¢	-7818
¦	-7819
¬	-7820
¶	-7821
À	-7822
Ã	-7823
Å	-7824
Æ	-7825
È	-7826
Ê	-7827
Ë	-7828
Ì	-7829
Í	-7830
Î	-7831
Ð	-7832
Ñ	-7833
Ó	-7834
Õ	-7835
Ö	-7836
Ø	-7837
Ù	-7838
Û	-7839
Ü	-7840
Ý	-7841
Þ	-7842
ß	-7843
ë	-7844
ì	-7845
î	-7846
ð	-7847
õ	-7848
ù	-7849
û	-7850
þ	-7851
ÿ	-7852
Ă	-7853
π	-7854
в	-7855
з	-7856
л	-7857
у	-7858
ч	-7859
ш	-7860
ب	-7861
د	-7862
ن	-7863
ه	-7864
و	-7865
۩	-7866
ळ	-7867
ॠ	-7868
‐	-7869
‰	-7870
‹	-7871
›	-7872
₪	-7873
₫	-7874
∙	-7875
▽	-7876
●	-7877
♣	-7878
♫	-7879
❁	-7880
い	-7881
う	-7882
さ	-7883
た	-7884
ち	-7885
っ	-7886
に	-7887
め	-7888
ゃ	-7889
よ	-7890
れ	-7891
を	-7892
ノ	-7893
一	-7894
三	-7895
世	-7896
人	-7897
住	-7898
公	-7899
営	-7900
坊	-7901
型	-7902
大	-7903
宅	-7904
害	-7905
弾	-7906
戦	-7907
新	-7908
材	-7909
次	-7910
汚	-7911
溜	-7912
災	-7913
爆	-7914
界	-7915
禾	-7916
秒	-7917
第	-7918
肥	-7919
逸	-7920
離	-7921
	-7922
	-7923
	-7924
	-7925
	-7926
	-7927
	-7928
	-7929
	-7930
	-7931
	-7932
🏻	-7933
😃	-7934
🙂	-7935
🤔	-7936
¿	-7937
č	-7938
Ō	-7939
ő	-7940
Ř	-7941
š	-7942
α	-7943
β	-7944
ع	-7945
ُ	-7946
ॊ	-7947
॒	-7948
॔	-7949
―	-7950
□	-7951
♦	-7952
✄	-7953
✨	-7954
お	-7955
じ	-7956
ょ	-7957
オ	-7958
ネ	-7959
京	-7960
力	-7961
族	-7962
暴	-7963
東	-7964
者	-7965
能	-7966
走	-7967
超	-7968
	-7969
	-7970
	-7971
	-7972
	-7973
	-7974
	-7975
	-7976
	-7977
	-7978
	-7979
	-7980
	-7981
	-7982
	-7983
	-7984
🇯	-7985
🇵	-7986
🌍	-7987
🎂	-7988
🎥	-7989
🐘	-7990
🐦	-7991
👏	-7992
🗣	-7993
😍	-7994
🙏	-7995
🤳	-7996
